unsigned char best_doubleCNNmodel_tflite[] = {
  0x1c, 0x00, 0x00, 0x00, 0x54, 0x46, 0x4c, 0x33, 0x14, 0x00, 0x20, 0x00,
  0x1c, 0x00, 0x18, 0x00, 0x14, 0x00, 0x10, 0x00, 0x0c, 0x00, 0x00, 0x00,
  0x08, 0x00, 0x04, 0x00, 0x14, 0x00, 0x00, 0x00, 0x1c, 0x00, 0x00, 0x00,
  0x84, 0x00, 0x00, 0x00, 0xdc, 0x00, 0x00, 0x00, 0x30, 0x95, 0x00, 0x00,
  0x40, 0x95, 0x00, 0x00, 0xe4, 0x19, 0x01, 0x00, 0x03, 0x00, 0x00, 0x00,
  0x01, 0x00, 0x00, 0x00, 0x04, 0x00, 0x00, 0x00, 0x72, 0x52, 0xff, 0xff,
  0x0c, 0x00, 0x00, 0x00, 0x1c, 0x00, 0x00, 0x00, 0x3c, 0x00, 0x00, 0x00,
  0x0f, 0x00, 0x00, 0x00, 0x73, 0x65, 0x72, 0x76, 0x69, 0x6e, 0x67, 0x5f,
  0x64, 0x65, 0x66, 0x61, 0x75, 0x6c, 0x74, 0x00, 0x01, 0x00, 0x00, 0x00,
  0x04, 0x00, 0x00, 0x00, 0x98, 0xff, 0xff, 0xff, 0xaf, 0x00, 0x00, 0x00,
  0x04, 0x00, 0x00, 0x00, 0x08, 0x00, 0x00, 0x00, 0x6f, 0x75, 0x74, 0x70,
  0x75, 0x74, 0x5f, 0x31, 0x00, 0x00, 0x00, 0x00, 0x01, 0x00, 0x00, 0x00,
  0x04, 0x00, 0x00, 0x00, 0x62, 0x53, 0xff, 0xff, 0x04, 0x00, 0x00, 0x00,
  0x07, 0x00, 0x00, 0x00, 0x69, 0x6e, 0x70, 0x75, 0x74, 0x5f, 0x31, 0x00,
  0x02, 0x00, 0x00, 0x00, 0x34, 0x00, 0x00, 0x00, 0x04, 0x00, 0x00, 0x00,
  0xdc, 0xff, 0xff, 0xff, 0xb2, 0x00, 0x00, 0x00, 0x04, 0x00, 0x00, 0x00,
  0x13, 0x00, 0x00, 0x00, 0x43, 0x4f, 0x4e, 0x56, 0x45, 0x52, 0x53, 0x49,
  0x4f, 0x4e, 0x5f, 0x4d, 0x45, 0x54, 0x41, 0x44, 0x41, 0x54, 0x41, 0x00,
  0x08, 0x00, 0x0c, 0x00, 0x08, 0x00, 0x04, 0x00, 0x08, 0x00, 0x00, 0x00,
  0xb1, 0x00, 0x00, 0x00, 0x04, 0x00, 0x00, 0x00, 0x13, 0x00, 0x00, 0x00,
  0x6d, 0x69, 0x6e, 0x5f, 0x72, 0x75, 0x6e, 0x74, 0x69, 0x6d, 0x65, 0x5f,
  0x76, 0x65, 0x72, 0x73, 0x69, 0x6f, 0x6e, 0x00, 0xb3, 0x00, 0x00, 0x00,
  0x50, 0x94, 0x00, 0x00, 0x48, 0x94, 0x00, 0x00, 0x34, 0x94, 0x00, 0x00,
  0x14, 0x94, 0x00, 0x00, 0x00, 0x94, 0x00, 0x00, 0xf8, 0x93, 0x00, 0x00,
  0xe4, 0x93, 0x00, 0x00, 0xc8, 0x93, 0x00, 0x00, 0xa8, 0x93, 0x00, 0x00,
  0x8c, 0x93, 0x00, 0x00, 0x78, 0x93, 0x00, 0x00, 0x60, 0x93, 0x00, 0x00,
  0x40, 0x93, 0x00, 0x00, 0x28, 0x93, 0x00, 0x00, 0x0c, 0x93, 0x00, 0x00,
  0xec, 0x92, 0x00, 0x00, 0xd0, 0x92, 0x00, 0x00, 0xb8, 0x92, 0x00, 0x00,
  0x98, 0x92, 0x00, 0x00, 0x80, 0x92, 0x00, 0x00, 0x5c, 0x92, 0x00, 0x00,
  0x0c, 0x28, 0x00, 0x00, 0xec, 0x27, 0x00, 0x00, 0xcc, 0x27, 0x00, 0x00,
  0xac, 0x27, 0x00, 0x00, 0x9c, 0x23, 0x00, 0x00, 0x7c, 0x23, 0x00, 0x00,
  0x5c, 0x23, 0x00, 0x00, 0x3c, 0x23, 0x00, 0x00, 0x2c, 0x1f, 0x00, 0x00,
  0x0c, 0x1f, 0x00, 0x00, 0xec, 0x1e, 0x00, 0x00, 0xcc, 0x1e, 0x00, 0x00,
  0xbc, 0x1c, 0x00, 0x00, 0xa4, 0x1c, 0x00, 0x00, 0x8c, 0x1c, 0x00, 0x00,
  0x3c, 0x16, 0x00, 0x00, 0x1c, 0x16, 0x00, 0x00, 0xfc, 0x15, 0x00, 0x00,
  0xdc, 0x15, 0x00, 0x00, 0xcc, 0x0f, 0x00, 0x00, 0xac, 0x0f, 0x00, 0x00,
  0x8c, 0x0f, 0x00, 0x00, 0x6c, 0x0f, 0x00, 0x00, 0x5c, 0x09, 0x00, 0x00,
  0x3c, 0x09, 0x00, 0x00, 0x1c, 0x09, 0x00, 0x00, 0xfc, 0x08, 0x00, 0x00,
  0xac, 0x08, 0x00, 0x00, 0xa4, 0x08, 0x00, 0x00, 0x9c, 0x08, 0x00, 0x00,
  0x94, 0x08, 0x00, 0x00, 0x8c, 0x08, 0x00, 0x00, 0x84, 0x08, 0x00, 0x00,
  0x74, 0x05, 0x00, 0x00, 0x5c, 0x05, 0x00, 0x00, 0x44, 0x05, 0x00, 0x00,
  0x14, 0x05, 0x00, 0x00, 0x0c, 0x05, 0x00, 0x00, 0x34, 0x04, 0x00, 0x00,
  0x2c, 0x04, 0x00, 0x00, 0x24, 0x04, 0x00, 0x00, 0x1c, 0x04, 0x00, 0x00,
  0x14, 0x04, 0x00, 0x00, 0x0c, 0x04, 0x00, 0x00, 0x04, 0x04, 0x00, 0x00,
  0xfc, 0x03, 0x00, 0x00, 0xf4, 0x03, 0x00, 0x00, 0xec, 0x03, 0x00, 0x00,
  0xe4, 0x03, 0x00, 0x00, 0xdc, 0x03, 0x00, 0x00, 0xd4, 0x03, 0x00, 0x00,
  0xcc, 0x03, 0x00, 0x00, 0xc4, 0x03, 0x00, 0x00, 0xbc, 0x03, 0x00, 0x00,
  0xb4, 0x03, 0x00, 0x00, 0xac, 0x03, 0x00, 0x00, 0xa4, 0x03, 0x00, 0x00,
  0x9c, 0x03, 0x00, 0x00, 0x94, 0x03, 0x00, 0x00, 0x8c, 0x03, 0x00, 0x00,
  0x84, 0x03, 0x00, 0x00, 0x7c, 0x03, 0x00, 0x00, 0x74, 0x03, 0x00, 0x00,
  0x6c, 0x03, 0x00, 0x00, 0x64, 0x03, 0x00, 0x00, 0x5c, 0x03, 0x00, 0x00,
  0x54, 0x03, 0x00, 0x00, 0x4c, 0x03, 0x00, 0x00, 0x44, 0x03, 0x00, 0x00,
  0x3c, 0x03, 0x00, 0x00, 0x34, 0x03, 0x00, 0x00, 0x2c, 0x03, 0x00, 0x00,
  0x24, 0x03, 0x00, 0x00, 0x1c, 0x03, 0x00, 0x00, 0x14, 0x03, 0x00, 0x00,
  0x0c, 0x03, 0x00, 0x00, 0x04, 0x03, 0x00, 0x00, 0xfc, 0x02, 0x00, 0x00,
  0xf4, 0x02, 0x00, 0x00, 0xec, 0x02, 0x00, 0x00, 0xe4, 0x02, 0x00, 0x00,
  0xdc, 0x02, 0x00, 0x00, 0xd4, 0x02, 0x00, 0x00, 0xcc, 0x02, 0x00, 0x00,
  0xc4, 0x02, 0x00, 0x00, 0xbc, 0x02, 0x00, 0x00, 0xb4, 0x02, 0x00, 0x00,
  0xac, 0x02, 0x00, 0x00, 0xa4, 0x02, 0x00, 0x00, 0x9c, 0x02, 0x00, 0x00,
  0x94, 0x02, 0x00, 0x00, 0x8c, 0x02, 0x00, 0x00, 0x84, 0x02, 0x00, 0x00,
  0x7c, 0x02, 0x00, 0x00, 0x74, 0x02, 0x00, 0x00, 0x6c, 0x02, 0x00, 0x00,
  0x64, 0x02, 0x00, 0x00, 0x5c, 0x02, 0x00, 0x00, 0x54, 0x02, 0x00, 0x00,
  0x4c, 0x02, 0x00, 0x00, 0x44, 0x02, 0x00, 0x00, 0x3c, 0x02, 0x00, 0x00,
  0x34, 0x02, 0x00, 0x00, 0x2c, 0x02, 0x00, 0x00, 0x24, 0x02, 0x00, 0x00,
  0x1c, 0x02, 0x00, 0x00, 0x14, 0x02, 0x00, 0x00, 0x0c, 0x02, 0x00, 0x00,
  0x04, 0x02, 0x00, 0x00, 0xfc, 0x01, 0x00, 0x00, 0xf4, 0x01, 0x00, 0x00,
  0xec, 0x01, 0x00, 0x00, 0xe4, 0x01, 0x00, 0x00, 0xdc, 0x01, 0x00, 0x00,
  0xd4, 0x01, 0x00, 0x00, 0xcc, 0x01, 0x00, 0x00, 0xc4, 0x01, 0x00, 0x00,
  0xbc, 0x01, 0x00, 0x00, 0xb4, 0x01, 0x00, 0x00, 0xac, 0x01, 0x00, 0x00,
  0xa4, 0x01, 0x00, 0x00, 0x9c, 0x01, 0x00, 0x00, 0x94, 0x01, 0x00, 0x00,
  0x8c, 0x01, 0x00, 0x00, 0x84, 0x01, 0x00, 0x00, 0x7c, 0x01, 0x00, 0x00,
  0x74, 0x01, 0x00, 0x00, 0x6c, 0x01, 0x00, 0x00, 0x64, 0x01, 0x00, 0x00,
  0x5c, 0x01, 0x00, 0x00, 0x54, 0x01, 0x00, 0x00, 0x4c, 0x01, 0x00, 0x00,
  0x44, 0x01, 0x00, 0x00, 0x3c, 0x01, 0x00, 0x00, 0x34, 0x01, 0x00, 0x00,
  0x2c, 0x01, 0x00, 0x00, 0x24, 0x01, 0x00, 0x00, 0x1c, 0x01, 0x00, 0x00,
  0x14, 0x01, 0x00, 0x00, 0x0c, 0x01, 0x00, 0x00, 0x04, 0x01, 0x00, 0x00,
  0xfc, 0x00, 0x00, 0x00, 0xf4, 0x00, 0x00, 0x00, 0xec, 0x00, 0x00, 0x00,
  0xe4, 0x00, 0x00, 0x00, 0xdc, 0x00, 0x00, 0x00, 0xd4, 0x00, 0x00, 0x00,
  0xcc, 0x00, 0x00, 0x00, 0xc4, 0x00, 0x00, 0x00, 0xbc, 0x00, 0x00, 0x00,
  0xb4, 0x00, 0x00, 0x00, 0xac, 0x00, 0x00, 0x00, 0xa4, 0x00, 0x00, 0x00,
  0x9c, 0x00, 0x00, 0x00, 0x94, 0x00, 0x00, 0x00, 0x8c, 0x00, 0x00, 0x00,
  0x6c, 0x00, 0x00, 0x00, 0x04, 0x00, 0x00, 0x00, 0xa2, 0x56, 0xff, 0xff,
  0x04, 0x00, 0x00, 0x00, 0x58, 0x00, 0x00, 0x00, 0x0c, 0x00, 0x00, 0x00,
  0x08, 0x00, 0x0e, 0x00, 0x08, 0x00, 0x04, 0x00, 0x08, 0x00, 0x00, 0x00,
  0x10, 0x00, 0x00, 0x00, 0x28, 0x00, 0x00, 0x00, 0x00, 0x00, 0x06, 0x00,
  0x08, 0x00, 0x04, 0x00, 0x06, 0x00, 0x00, 0x00, 0x04, 0x00, 0x00, 0x00,
  0x01, 0x00, 0x00, 0x00, 0xeb, 0x03, 0x00, 0x00, 0x00, 0x00, 0x0a, 0x00,
  0x10, 0x00, 0x0c, 0x00, 0x08, 0x00, 0x04, 0x00, 0x0a, 0x00, 0x00, 0x00,
  0x01, 0x00, 0x00, 0x00, 0x02, 0x00, 0x00, 0x00, 0x04, 0x00, 0x00, 0x00,
  0x06, 0x00, 0x00, 0x00, 0x32, 0x2e, 0x31, 0x32, 0x2e, 0x30, 0x00, 0x00,
  0x06, 0x57, 0xff, 0xff, 0x04, 0x00, 0x00, 0x00, 0x10, 0x00, 0x00, 0x00,
  0x31, 0x2e, 0x31, 0x34, 0x2e, 0x30, 0x00, 0x00, 0x00, 0x00, 0x00, 0x00,
  0x00, 0x00, 0x00, 0x00, 0x78, 0xea, 0xfe, 0xff, 0x7c, 0xea, 0xfe, 0xff,
  0x80, 0xea, 0xfe, 0xff, 0x84, 0xea, 0xfe, 0xff, 0x88, 0xea, 0xfe, 0xff,
  0x8c, 0xea, 0xfe, 0xff, 0x90, 0xea, 0xfe, 0xff, 0x94, 0xea, 0xfe, 0xff,
  0x98, 0xea, 0xfe, 0xff, 0x9c, 0xea, 0xfe, 0xff, 0xa0, 0xea, 0xfe, 0xff,
  0xa4, 0xea, 0xfe, 0xff, 0xa8, 0xea, 0xfe, 0xff, 0xac, 0xea, 0xfe, 0xff,
  0xb0, 0xea, 0xfe, 0xff, 0xb4, 0xea, 0xfe, 0xff, 0xb8, 0xea, 0xfe, 0xff,
  0xbc, 0xea, 0xfe, 0xff, 0xc0, 0xea, 0xfe, 0xff, 0xc4, 0xea, 0xfe, 0xff,
  0xc8, 0xea, 0xfe, 0xff, 0xcc, 0xea, 0xfe, 0xff, 0xd0, 0xea, 0xfe, 0xff,
  0xd4, 0xea, 0xfe, 0xff, 0xd8, 0xea, 0xfe, 0xff, 0xdc, 0xea, 0xfe, 0xff,
  0xe0, 0xea, 0xfe, 0xff, 0xe4, 0xea, 0xfe, 0xff, 0xe8, 0xea, 0xfe, 0xff,
  0xec, 0xea, 0xfe, 0xff, 0xf0, 0xea, 0xfe, 0xff, 0xf4, 0xea, 0xfe, 0xff,
  0xf8, 0xea, 0xfe, 0xff, 0xfc, 0xea, 0xfe, 0xff, 0x00, 0xeb, 0xfe, 0xff,
  0x04, 0xeb, 0xfe, 0xff, 0x08, 0xeb, 0xfe, 0xff, 0x0c, 0xeb, 0xfe, 0xff,
  0x10, 0xeb, 0xfe, 0xff, 0x14, 0xeb, 0xfe, 0xff, 0x18, 0xeb, 0xfe, 0xff,
  0x1c, 0xeb, 0xfe, 0xff, 0x20, 0xeb, 0xfe, 0xff, 0x24, 0xeb, 0xfe, 0xff,
  0x28, 0xeb, 0xfe, 0xff, 0x2c, 0xeb, 0xfe, 0xff, 0x30, 0xeb, 0xfe, 0xff,
  0x34, 0xeb, 0xfe, 0xff, 0x38, 0xeb, 0xfe, 0xff, 0x3c, 0xeb, 0xfe, 0xff,
  0x40, 0xeb, 0xfe, 0xff, 0x44, 0xeb, 0xfe, 0xff, 0x48, 0xeb, 0xfe, 0xff,
  0x4c, 0xeb, 0xfe, 0xff, 0x50, 0xeb, 0xfe, 0xff, 0x54, 0xeb, 0xfe, 0xff,
  0x58, 0xeb, 0xfe, 0xff, 0x5c, 0xeb, 0xfe, 0xff, 0x60, 0xeb, 0xfe, 0xff,
  0x64, 0xeb, 0xfe, 0xff, 0x68, 0xeb, 0xfe, 0xff, 0x6c, 0xeb, 0xfe, 0xff,
  0x70, 0xeb, 0xfe, 0xff, 0x74, 0xeb, 0xfe, 0xff, 0x78, 0xeb, 0xfe, 0xff,
  0x7c, 0xeb, 0xfe, 0xff, 0x80, 0xeb, 0xfe, 0xff, 0x84, 0xeb, 0xfe, 0xff,
  0x88, 0xeb, 0xfe, 0xff, 0x8c, 0xeb, 0xfe, 0xff, 0x90, 0xeb, 0xfe, 0xff,
  0x94, 0xeb, 0xfe, 0xff, 0x98, 0xeb, 0xfe, 0xff, 0x9c, 0xeb, 0xfe, 0xff,
  0xa0, 0xeb, 0xfe, 0xff, 0xa4, 0xeb, 0xfe, 0xff, 0xa8, 0xeb, 0xfe, 0xff,
  0xac, 0xeb, 0xfe, 0xff, 0xb0, 0xeb, 0xfe, 0xff, 0xb4, 0xeb, 0xfe, 0xff,
  0xb8, 0xeb, 0xfe, 0xff, 0xbc, 0xeb, 0xfe, 0xff, 0xc0, 0xeb, 0xfe, 0xff,
  0xc4, 0xeb, 0xfe, 0xff, 0xc8, 0xeb, 0xfe, 0xff, 0xcc, 0xeb, 0xfe, 0xff,
  0xd0, 0xeb, 0xfe, 0xff, 0xd4, 0xeb, 0xfe, 0xff, 0xd8, 0xeb, 0xfe, 0xff,
  0xdc, 0xeb, 0xfe, 0xff, 0xe0, 0xeb, 0xfe, 0xff, 0xe4, 0xeb, 0xfe, 0xff,
  0xe8, 0xeb, 0xfe, 0xff, 0xec, 0xeb, 0xfe, 0xff, 0xf0, 0xeb, 0xfe, 0xff,
  0xf4, 0xeb, 0xfe, 0xff, 0xf8, 0xeb, 0xfe, 0xff, 0xfc, 0xeb, 0xfe, 0xff,
  0x00, 0xec, 0xfe, 0xff, 0x04, 0xec, 0xfe, 0xff, 0x08, 0xec, 0xfe, 0xff,
  0x0c, 0xec, 0xfe, 0xff, 0x10, 0xec, 0xfe, 0xff, 0x14, 0xec, 0xfe, 0xff,
  0x18, 0xec, 0xfe, 0xff, 0x1c, 0xec, 0xfe, 0xff, 0x20, 0xec, 0xfe, 0xff,
  0x24, 0xec, 0xfe, 0xff, 0x28, 0xec, 0xfe, 0xff, 0x2c, 0xec, 0xfe, 0xff,
  0x30, 0xec, 0xfe, 0xff, 0x34, 0xec, 0xfe, 0xff, 0x38, 0xec, 0xfe, 0xff,
  0x3c, 0xec, 0xfe, 0xff, 0x40, 0xec, 0xfe, 0xff, 0x44, 0xec, 0xfe, 0xff,
  0x48, 0xec, 0xfe, 0xff, 0xf6, 0x58, 0xff, 0xff, 0x04, 0x00, 0x00, 0x00,
  0xc8, 0x00, 0x00, 0x00, 0x00, 0x00, 0x00, 0x00, 0x00, 0x00, 0x00, 0x00,
  0x00, 0x00, 0x00, 0x00, 0x00, 0x00, 0x00, 0x00, 0x00, 0x00, 0x00, 0x00,
  0x00, 0x00, 0x00, 0x00, 0x00, 0x00, 0x00, 0x00, 0x00, 0x00, 0x00, 0x00,
  0x00, 0x00, 0x00, 0x00, 0x00, 0x00, 0x00, 0x00, 0x00, 0x00, 0x00, 0x00,
  0x00, 0x00, 0x00, 0x00, 0x00, 0x00, 0x00, 0x00, 0x00, 0x00, 0x00, 0x00,
  0x00, 0x00, 0x00, 0x00, 0x00, 0x00, 0x00, 0x00, 0x00, 0x00, 0x00, 0x00,
  0x00, 0x00, 0x00, 0x00, 0x00, 0x00, 0x00, 0x00, 0x00, 0x00, 0x00, 0x00,
  0x00, 0x00, 0x00, 0x00, 0x00, 0x00, 0x00, 0x00, 0x00, 0x00, 0x00, 0x00,
  0x00, 0x00, 0x00, 0x00, 0x00, 0x00, 0x00, 0x00, 0x00, 0x00, 0x00, 0x00,
  0x00, 0x00, 0x00, 0x00, 0x00, 0x00, 0x00, 0x00, 0x00, 0x00, 0x00, 0x00,
  0x00, 0x00, 0x00, 0x00, 0x00, 0x00, 0x00, 0x00, 0x00, 0x00, 0x00, 0x00,
  0x00, 0x00, 0x00, 0x00, 0x00, 0x00, 0x00, 0x00, 0x00, 0x00, 0x00, 0x00,
  0x00, 0x00, 0x00, 0x00, 0x00, 0x00, 0x00, 0x00, 0x00, 0x00, 0x00, 0x00,
  0x00, 0x00, 0x00, 0x00, 0x00, 0x00, 0x00, 0x00, 0x00, 0x00, 0x00, 0x00,
  0x00, 0x00, 0x00, 0x00, 0x00, 0x00, 0x00, 0x00, 0x00, 0x00, 0x00, 0x00,
  0x00, 0x00, 0x00, 0x00, 0x00, 0x00, 0x00, 0x00, 0x00, 0x00, 0x00, 0x00,
  0x00, 0x00, 0x00, 0x00, 0x00, 0x00, 0x00, 0x00, 0x00, 0x00, 0x00, 0x00,
  0x20, 0xed, 0xfe, 0xff, 0xce, 0x59, 0xff, 0xff, 0x04, 0x00, 0x00, 0x00,
  0x20, 0x00, 0x00, 0x00, 0x00, 0x00, 0x00, 0x00, 0x00, 0x00, 0x00, 0x00,
  0x00, 0x00, 0x00, 0x00, 0x00, 0x00, 0x00, 0x00, 0x00, 0x00, 0x00, 0x00,
  0x00, 0x00, 0x00, 0x00, 0x00, 0x00, 0x00, 0x00, 0x00, 0x00, 0x00, 0x00,
  0xfa, 0x59, 0xff, 0xff, 0x04, 0x00, 0x00, 0x00, 0x08, 0x00, 0x00, 0x00,
  0x72, 0x7f, 0x79, 0x7e, 0x73, 0x72, 0x74, 0x76, 0x0e, 0x5a, 0xff, 0xff,
  0x04, 0x00, 0x00, 0x00, 0x08, 0x00, 0x00, 0x00, 0x12, 0x9e, 0xb8, 0x80,
  0xe7, 0x0a, 0x25, 0x2a, 0x22, 0x5a, 0xff, 0xff, 0x04, 0x00, 0x00, 0x00,
  0x00, 0x03, 0x00, 0x00, 0x2c, 0x01, 0xb7, 0xda, 0xe1, 0x9e, 0xa4, 0xf1,
  0xaa, 0x5b, 0xf9, 0x00, 0x73, 0x4c, 0x98, 0x5e, 0x4b, 0x4a, 0xe4, 0x15,
  0x72, 0xc7, 0xc4, 0x25, 0x10, 0x0f, 0x94, 0xc6, 0x28, 0x5e, 0xe9, 0x6c,
  0x10, 0x5a, 0xec, 0x37, 0x24, 0x63, 0x26, 0x55, 0xc3, 0x70, 0x67, 0x81,
  0x87, 0x46, 0xe6, 0x02, 0x38, 0xf8, 0x21, 0xbf, 0x19, 0xa7, 0xb3, 0x7b,
  0x0a, 0xdc, 0xff, 0x5d, 0x0e, 0x73, 0xc4, 0x2c, 0x70, 0x50, 0x3c, 0x5f,
  0x62, 0x8d, 0x14, 0x5e, 0xc7, 0x0e, 0x66, 0x12, 0xbb, 0xfd, 0x9c, 0x56,
  0x8e, 0x31, 0x61, 0xc3, 0xc5, 0x42, 0x62, 0x4e, 0xe2, 0x81, 0x34, 0xd5,
  0xa5, 0x94, 0x23, 0xd2, 0xb0, 0x11, 0x35, 0x99, 0xb7, 0xd5, 0xba, 0xb5,
  0x5c, 0xc2, 0xcb, 0x57, 0x15, 0xce, 0x81, 0xd2, 0x64, 0x31, 0x71, 0x61,
  0x20, 0xf3, 0xd1, 0x6d, 0x15, 0x60, 0xbf, 0x0d, 0x8a, 0x27, 0x5a, 0xd9,
  0x4c, 0xea, 0xb3, 0x66, 0xff, 0x0f, 0xd6, 0x64, 0x07, 0xed, 0x20, 0x18,
  0x74, 0x0f, 0x23, 0xc8, 0x1f, 0x23, 0x6d, 0x82, 0x5b, 0x48, 0x2c, 0xce,
  0x9f, 0xa0, 0x50, 0xa9, 0xbf, 0xc0, 0xfa, 0xc7, 0x78, 0xd6, 0x21, 0x2f,
  0x74, 0xa0, 0xda, 0x0d, 0x30, 0x94, 0x74, 0xb1, 0x1f, 0x03, 0xc1, 0x92,
  0xc4, 0x6f, 0xcd, 0x9e, 0x74, 0xe0, 0xfc, 0xa2, 0xfa, 0x81, 0x88, 0xfd,
  0x0a, 0x9b, 0x68, 0xd9, 0xac, 0x6b, 0xc2, 0xf4, 0x70, 0xc7, 0xd2, 0x66,
  0xe8, 0x46, 0x23, 0xd5, 0xb9, 0x76, 0x14, 0x81, 0xb8, 0x09, 0x4d, 0xc0,
  0xc4, 0x14, 0x86, 0x66, 0x91, 0xad, 0xb2, 0x92, 0xbf, 0xdd, 0x41, 0x2b,
  0x06, 0x95, 0x44, 0xa9, 0x9f, 0x96, 0x2f, 0x3d, 0x05, 0xca, 0xc3, 0x50,
  0x27, 0x18, 0xd6, 0x36, 0x6a, 0x42, 0xaf, 0xed, 0xb2, 0x96, 0x76, 0xdc,
  0x9c, 0xcd, 0x9a, 0x99, 0x20, 0x1f, 0xf2, 0xc0, 0x68, 0x02, 0xd4, 0xb6,
  0xac, 0xa4, 0xa7, 0x79, 0xed, 0x1c, 0xb5, 0x4c, 0xbf, 0xc4, 0xc9, 0xb4,
  0x18, 0xf0, 0xf8, 0xb8, 0xfe, 0x9d, 0x48, 0x9b, 0x01, 0x7f, 0x9b, 0xf4,
  0xf2, 0x2c, 0x3e, 0xcc, 0xf2, 0xaa, 0x46, 0xfc, 0x93, 0xd8, 0x1d, 0xe7,
  0xa5, 0x03, 0x60, 0xdd, 0x06, 0x18, 0x78, 0x57, 0x6b, 0x4a, 0xe4, 0x3e,
  0x06, 0x9e, 0x8c, 0x09, 0x8e, 0xe5, 0x6f, 0xff, 0xff, 0x26, 0x0b, 0x9d,
  0x9a, 0xfe, 0x1c, 0x23, 0x8a, 0x81, 0x12, 0xab, 0x04, 0x64, 0x1e, 0x4c,
  0xe1, 0x63, 0xf8, 0x2c, 0xdd, 0x95, 0x72, 0xb1, 0xf5, 0x49, 0x78, 0x12,
  0x27, 0x41, 0x07, 0x59, 0xfd, 0xbf, 0xca, 0x21, 0x77, 0x99, 0x7f, 0xa0,
  0x0c, 0x90, 0x74, 0xe9, 0xe5, 0x4b, 0x6a, 0xd6, 0xec, 0xc3, 0x8f, 0x9a,
  0xa5, 0x29, 0x5a, 0x40, 0x56, 0x0a, 0x77, 0xa6, 0xe3, 0x6a, 0x6c, 0xed,
  0x12, 0xe2, 0xa4, 0x9b, 0xcd, 0x0a, 0x3d, 0x4c, 0x3b, 0x34, 0xa0, 0x9c,
  0x89, 0x57, 0x5f, 0x76, 0xfd, 0x0d, 0x04, 0x73, 0xe8, 0x27, 0x6a, 0x01,
  0xa9, 0x5a, 0x01, 0x92, 0x74, 0x1d, 0xbb, 0x45, 0xfc, 0x65, 0x81, 0x50,
  0xf7, 0xe4, 0xa2, 0x9d, 0xc1, 0x3f, 0x9b, 0xab, 0x79, 0x47, 0x7c, 0xcd,
  0x85, 0x11, 0x3f, 0x57, 0xdb, 0xe1, 0x7f, 0x7b, 0xb8, 0x65, 0xd7, 0x65,
  0xa7, 0x1a, 0xf6, 0x27, 0x5b, 0x11, 0xd4, 0x47, 0xad, 0x34, 0x32, 0x0e,
  0xc9, 0xab, 0x68, 0x19, 0xd7, 0x28, 0x34, 0x49, 0x4f, 0x04, 0xe5, 0x21,
  0x3d, 0x1c, 0x68, 0x64, 0x2a, 0x60, 0x46, 0xe9, 0x97, 0x58, 0x9c, 0xe6,
  0x6a, 0xa9, 0x89, 0x6a, 0x4e, 0xc8, 0x1d, 0xaa, 0xd7, 0xda, 0x95, 0x1a,
  0xae, 0x37, 0xd7, 0xd2, 0xc2, 0xe5, 0xe6, 0xb0, 0x81, 0x17, 0xdc, 0xfb,
  0x18, 0x9b, 0x96, 0x11, 0x68, 0x40, 0xd9, 0x5a, 0x4d, 0xde, 0xde, 0xe6,
  0x24, 0xad, 0x36, 0xd1, 0xb2, 0x12, 0xac, 0xb8, 0xb1, 0xa3, 0xed, 0xb9,
  0x3b, 0xd3, 0x35, 0x13, 0x0e, 0x94, 0xe4, 0xc7, 0xe3, 0x48, 0xe2, 0x12,
  0x2d, 0xe3, 0xba, 0x12, 0xb0, 0x28, 0x1d, 0x5c, 0x36, 0xac, 0xae, 0xdc,
  0x71, 0x70, 0x8d, 0x0c, 0x6e, 0xec, 0xe5, 0x86, 0x6d, 0x51, 0x30, 0x4f,
  0x58, 0x7a, 0xa0, 0x9a, 0xf0, 0xda, 0x1a, 0x81, 0xa0, 0xf4, 0xd4, 0x90,
  0x62, 0x7b, 0xac, 0xfc, 0x19, 0x3e, 0xf8, 0xc7, 0x77, 0x71, 0x2c, 0x0c,
  0x16, 0x68, 0x2c, 0xc3, 0xfc, 0xf7, 0x8e, 0xa1, 0xc9, 0x8c, 0x98, 0x99,
  0x71, 0x7f, 0x18, 0xb2, 0xe4, 0x27, 0x0e, 0xaa, 0xa7, 0xfa, 0xa0, 0x2a,
  0x85, 0x9f, 0xe3, 0xb8, 0x50, 0x35, 0xe4, 0x0a, 0x3f, 0xe1, 0xfb, 0xc5,
  0xdd, 0x1e, 0xa8, 0xba, 0x2f, 0xa4, 0xba, 0xd1, 0x04, 0xbf, 0xe0, 0xf0,
  0xae, 0xe5, 0x6a, 0x34, 0x1f, 0x63, 0x51, 0x36, 0xdd, 0xcd, 0xb3, 0xe4,
  0xdd, 0xc7, 0xc6, 0x2c, 0x4c, 0xb8, 0x24, 0x5c, 0xb1, 0x4d, 0x12, 0xa7,
  0xb9, 0x48, 0xdd, 0x16, 0x94, 0xcf, 0x6e, 0xaf, 0x0e, 0x2d, 0xbd, 0x7f,
  0x4d, 0x34, 0x66, 0x41, 0xf5, 0x6c, 0xa9, 0xe4, 0x77, 0xff, 0xf1, 0x0a,
  0xfd, 0x19, 0x52, 0x54, 0xef, 0x04, 0x89, 0x65, 0x60, 0xea, 0x69, 0x81,
  0x8c, 0x8e, 0x38, 0x48, 0x74, 0xd5, 0xde, 0x19, 0xed, 0x62, 0x95, 0x59,
  0x28, 0x26, 0x4d, 0xed, 0x4c, 0x37, 0xef, 0xe9, 0x21, 0xd6, 0x38, 0x82,
  0x97, 0x04, 0x2a, 0xcd, 0x70, 0x00, 0x62, 0x51, 0x62, 0xb8, 0xb2, 0x6f,
  0xf7, 0x4b, 0xf3, 0x1b, 0xc8, 0xdd, 0xf9, 0x68, 0xf6, 0xad, 0x92, 0x35,
  0x3c, 0xa9, 0x5b, 0x5f, 0xfa, 0xfe, 0x71, 0x33, 0x06, 0x79, 0xfa, 0x21,
  0x1d, 0x3c, 0x44, 0xce, 0x81, 0x68, 0x43, 0x53, 0x2d, 0xa6, 0x18, 0x29,
  0x1d, 0x78, 0xf0, 0xa5, 0x84, 0xf0, 0xfe, 0xff, 0x88, 0xf0, 0xfe, 0xff,
  0x8c, 0xf0, 0xfe, 0xff, 0x90, 0xf0, 0xfe, 0xff, 0x94, 0xf0, 0xfe, 0xff,
  0x42, 0x5d, 0xff, 0xff, 0x04, 0x00, 0x00, 0x00, 0x40, 0x00, 0x00, 0x00,
  0x00, 0x00, 0x00, 0x00, 0x00, 0x00, 0x00, 0x00, 0x00, 0x00, 0x00, 0x00,
  0x00, 0x00, 0x00, 0x00, 0x00, 0x00, 0x00, 0x00, 0x00, 0x00, 0x00, 0x00,
  0x00, 0x00, 0x00, 0x00, 0x00, 0x00, 0x00, 0x00, 0x00, 0x00, 0x00, 0x00,
  0x00, 0x00, 0x00, 0x00, 0x00, 0x00, 0x00, 0x00, 0x00, 0x00, 0x00, 0x00,
  0x00, 0x00, 0x00, 0x00, 0x00, 0x00, 0x00, 0x00, 0x00, 0x00, 0x00, 0x00,
  0x00, 0x00, 0x00, 0x00, 0x8e, 0x5d, 0xff, 0xff, 0x04, 0x00, 0x00, 0x00,
  0x10, 0x00, 0x00, 0x00, 0xc6, 0x7f, 0x58, 0xcb, 0xcf, 0x6b, 0x9e, 0xec,
  0xa7, 0x7f, 0xd6, 0x80, 0x8b, 0x7f, 0x93, 0x7f, 0xaa, 0x5d, 0xff, 0xff,
  0x04, 0x00, 0x00, 0x00, 0x10, 0x00, 0x00, 0x00, 0x7e, 0x71, 0x75, 0x7d,
  0x7e, 0x76, 0x7e, 0x7c, 0x7f, 0x75, 0x7e, 0x7f, 0x7d, 0x7e, 0x7d, 0x6f,
  0xc6, 0x5d, 0xff, 0xff, 0x04, 0x00, 0x00, 0x00, 0x10, 0x00, 0x00, 0x00,
  0x77, 0x84, 0xdf, 0x78, 0x78, 0xae, 0x75, 0x78, 0x77, 0x80, 0x78, 0x73,
  0x74, 0x9e, 0x76, 0x8c, 0xe2, 0x5d, 0xff, 0xff, 0x04, 0x00, 0x00, 0x00,
  0x00, 0x06, 0x00, 0x00, 0x54, 0x50, 0xcf, 0xfa, 0x50, 0x84, 0xa3, 0xa7,
  0x57, 0x17, 0x91, 0x16, 0xa7, 0xcb, 0x95, 0x82, 0xc7, 0xc9, 0xae, 0xbd,
  0x55, 0xf6, 0x9d, 0x1c, 0x49, 0x90, 0x90, 0x1b, 0x69, 0x22, 0x96, 0x0a,
  0xe9, 0x6a, 0xa8, 0x3f, 0x94, 0x90, 0xb9, 0xb7, 0xcc, 0x54, 0x6f, 0x41,
  0xc0, 0xa3, 0x36, 0xb2, 0x0b, 0xc0, 0x8b, 0xe2, 0x57, 0x2d, 0x71, 0xd6,
  0xd2, 0xfa, 0x3c, 0x58, 0xc6, 0x6c, 0xa3, 0xfc, 0x0e, 0xbf, 0xaf, 0x56,
  0x14, 0xad, 0xfe, 0x91, 0xb1, 0xa4, 0xfd, 0x49, 0xab, 0xb6, 0xf0, 0x0b,
  0x57, 0xe3, 0xae, 0xc5, 0x22, 0xc2, 0x6b, 0x0c, 0xbe, 0x81, 0x38, 0xff,
  0x67, 0x98, 0x4e, 0xc6, 0x9e, 0x40, 0x46, 0x70, 0x50, 0x81, 0x74, 0x17,
  0xe9, 0xc0, 0xbf, 0x34, 0x21, 0x12, 0xb8, 0xe6, 0xe6, 0x9d, 0x9e, 0x62,
  0x7a, 0xdc, 0xc4, 0x0d, 0xa2, 0x2e, 0x0a, 0x3c, 0x0b, 0x03, 0xb2, 0xc4,
  0xef, 0xe1, 0x04, 0xb5, 0xa3, 0xb5, 0x3b, 0xba, 0x04, 0xe0, 0x05, 0x91,
  0x71, 0x77, 0xea, 0x10, 0x3e, 0xe3, 0xa3, 0x49, 0x50, 0x2d, 0x21, 0x0f,
  0xd5, 0x87, 0xbf, 0x15, 0x2a, 0x10, 0xc8, 0xb5, 0x74, 0xed, 0x9a, 0x1a,
  0x15, 0xfa, 0x5c, 0x0b, 0x9e, 0xd9, 0x88, 0x28, 0x38, 0xe8, 0xbc, 0x66,
  0x65, 0xf5, 0x00, 0xda, 0x01, 0x33, 0x94, 0xbb, 0xab, 0x93, 0x66, 0xd1,
  0x1f, 0x8f, 0xc0, 0x62, 0x58, 0xcb, 0xe8, 0x94, 0x84, 0xb0, 0x38, 0x93,
  0x1f, 0xa0, 0x93, 0xd3, 0x0b, 0x66, 0x5c, 0x15, 0xdc, 0xd1, 0x17, 0x49,
  0xbf, 0x61, 0x73, 0x47, 0x7f, 0xec, 0xed, 0x6c, 0x4c, 0xd1, 0x25, 0x39,
  0x6e, 0xea, 0xbd, 0xaf, 0x01, 0xab, 0x2f, 0x7a, 0x4b, 0x9c, 0xfe, 0x31,
  0xa7, 0xa1, 0x51, 0xce, 0x88, 0x96, 0xd2, 0x3c, 0xbe, 0xcf, 0x08, 0x44,
  0xbd, 0x98, 0xc6, 0xa4, 0xff, 0xa6, 0x17, 0xe2, 0xc8, 0x96, 0xa4, 0xad,
  0x07, 0x0f, 0xc9, 0x8c, 0xd8, 0x22, 0x2f, 0xd1, 0x9a, 0x26, 0x59, 0x2f,
  0x13, 0x8b, 0xaf, 0x6f, 0x05, 0x64, 0x4a, 0xe7, 0x46, 0xd7, 0xd6, 0xc9,
  0xb5, 0x92, 0xd1, 0x8d, 0x47, 0x4d, 0x09, 0x1c, 0xc8, 0xbf, 0xf2, 0x97,
  0x9c, 0xb1, 0x4c, 0x63, 0x49, 0xcc, 0x74, 0x6e, 0x5f, 0xf7, 0xe4, 0xb3,
  0xba, 0x26, 0x2a, 0x03, 0xab, 0x40, 0x22, 0x03, 0xf9, 0xd2, 0xa9, 0x3f,
  0xa5, 0xcd, 0xe5, 0x07, 0x53, 0xf7, 0x58, 0x71, 0xaf, 0x11, 0x36, 0xec,
  0x3f, 0xf4, 0x7f, 0xd9, 0xf6, 0x3e, 0x97, 0xa2, 0x6b, 0xc1, 0xf7, 0x4a,
  0xc5, 0xef, 0x51, 0x0e, 0x94, 0x4b, 0xe2, 0xcc, 0x33, 0x00, 0x2e, 0xd8,
  0xda, 0xdc, 0xd9, 0x36, 0xa7, 0xe1, 0x23, 0x68, 0x29, 0xb6, 0xd9, 0x76,
  0xf3, 0x97, 0xfc, 0xbd, 0xfa, 0xbe, 0x5d, 0xb5, 0x74, 0x69, 0x28, 0x0b,
  0xd2, 0x65, 0xef, 0xc6, 0x5f, 0xcf, 0xeb, 0x39, 0x03, 0xa8, 0x27, 0xc8,
  0xd8, 0xef, 0x43, 0x32, 0xdb, 0x20, 0x1b, 0x34, 0x1d, 0x57, 0x0a, 0xbd,
  0x10, 0x4c, 0xdf, 0x1b, 0xdc, 0xb2, 0x6c, 0x2a, 0x5f, 0x9d, 0xf5, 0xa7,
  0x5a, 0x3a, 0xf7, 0xea, 0x96, 0x70, 0x18, 0x69, 0x49, 0x05, 0xda, 0x24,
  0x12, 0x83, 0x6f, 0xf0, 0x09, 0x53, 0xb4, 0x15, 0xf7, 0x1e, 0x2e, 0xed,
  0x18, 0xb7, 0xc0, 0xf0, 0x18, 0x7f, 0x4a, 0xec, 0x04, 0xfd, 0xb6, 0xd8,
  0x04, 0xab, 0x56, 0x17, 0x51, 0xde, 0x0e, 0x04, 0x26, 0x59, 0x60, 0x00,
  0x91, 0x12, 0x9d, 0x5b, 0x8f, 0x40, 0xbe, 0x0c, 0xaf, 0x1e, 0x07, 0x2b,
  0x2a, 0x65, 0xf5, 0xe6, 0xc8, 0xcc, 0x3a, 0x5a, 0xb3, 0x9f, 0x5e, 0xa9,
  0x4c, 0x9b, 0x52, 0xc0, 0x24, 0xb7, 0x47, 0xe9, 0x20, 0xb9, 0x3d, 0xb0,
  0x63, 0xde, 0x10, 0xf3, 0xda, 0x1c, 0x92, 0x17, 0xe3, 0x21, 0x70, 0xac,
  0xd5, 0x60, 0x10, 0x91, 0x4c, 0xae, 0xc9, 0xb2, 0x41, 0x81, 0x94, 0xe7,
  0x28, 0xaf, 0xd1, 0x02, 0x26, 0x2f, 0x4d, 0xc2, 0xe1, 0xa9, 0x1b, 0x0e,
  0x19, 0xc7, 0x4a, 0x18, 0x79, 0xf9, 0x53, 0xc9, 0x8e, 0xb6, 0x1e, 0x75,
  0x76, 0x9a, 0xa5, 0xd3, 0x53, 0x2f, 0x90, 0x0f, 0x24, 0x1b, 0x0d, 0x3e,
  0x46, 0x64, 0x8a, 0x05, 0x0a, 0x06, 0xc6, 0xd9, 0x6f, 0xb9, 0xc3, 0x0d,
  0x21, 0xf6, 0xf2, 0xa9, 0xd2, 0x11, 0x4b, 0x20, 0xdb, 0x28, 0xf8, 0x4d,
  0x3a, 0x59, 0x42, 0x8b, 0xd1, 0x41, 0x8d, 0x2c, 0xb5, 0x48, 0x99, 0xe8,
  0xc9, 0xdf, 0x0b, 0x43, 0x88, 0xa2, 0x09, 0x47, 0x6b, 0xd0, 0xd8, 0xad,
  0xb9, 0x12, 0x29, 0x4a, 0x01, 0xa5, 0xbe, 0x3d, 0xa8, 0x88, 0x01, 0xc4,
  0xe5, 0xda, 0x67, 0x39, 0x0a, 0xd2, 0x4c, 0x07, 0xe1, 0xe1, 0x1b, 0x82,
  0xf0, 0xfc, 0x28, 0xfd, 0xab, 0xfd, 0xe2, 0xfa, 0x0a, 0x05, 0x4b, 0x52,
  0xa5, 0x0e, 0x93, 0x6b, 0x4a, 0x83, 0xe7, 0xca, 0xa9, 0x81, 0x3b, 0x21,
  0x44, 0xa4, 0x52, 0xa5, 0x4e, 0x5a, 0x53, 0x62, 0x0e, 0x52, 0xbb, 0x8d,
  0x6b, 0x07, 0xba, 0x3a, 0xfe, 0x49, 0xb2, 0xec, 0x6b, 0x57, 0x9d, 0x72,
  0x3b, 0xca, 0x77, 0xf1, 0x3c, 0xab, 0xe2, 0xf2, 0xca, 0x54, 0xe6, 0x43,
  0xe6, 0xfc, 0x73, 0x4d, 0x8a, 0x99, 0xa9, 0xa3, 0x60, 0x1c, 0x93, 0x02,
  0xed, 0x15, 0xaa, 0xaa, 0x5d, 0xf5, 0x71, 0xd7, 0x6a, 0xdd, 0xa4, 0xa9,
  0x33, 0x35, 0xe1, 0xfb, 0xc2, 0xee, 0x94, 0xcf, 0x2f, 0x19, 0xeb, 0xc8,
  0x56, 0x8f, 0x18, 0x7a, 0xe9, 0xe6, 0xb2, 0xc9, 0x2c, 0x11, 0xb3, 0x94,
  0xfe, 0xc9, 0x0c, 0xba, 0xad, 0xa4, 0x19, 0xc1, 0x66, 0xd3, 0xee, 0x4a,
  0xc8, 0xed, 0x31, 0xad, 0xf3, 0x94, 0x68, 0x50, 0x3c, 0xe1, 0x52, 0xa8,
  0x55, 0x16, 0x7f, 0x39, 0x09, 0xc7, 0x81, 0xb6, 0x70, 0x31, 0x5d, 0xd8,
  0x48, 0xd0, 0x9d, 0x69, 0x6c, 0xde, 0x3f, 0xf2, 0x3f, 0x0e, 0x0c, 0x1e,
  0x6a, 0xec, 0x99, 0x18, 0x1b, 0x37, 0x4a, 0xf6, 0x3a, 0xc9, 0x7e, 0xd8,
  0x4e, 0x52, 0xca, 0xd2, 0x4d, 0xf7, 0xd1, 0xa4, 0x5f, 0xe2, 0xa7, 0x5f,
  0x42, 0xcf, 0x53, 0x9e, 0x51, 0x53, 0x34, 0x0c, 0xb8, 0x5a, 0xf6, 0x92,
  0x73, 0x2f, 0x69, 0x91, 0xef, 0x07, 0x05, 0xe6, 0x0b, 0xaf, 0xdd, 0x33,
  0x3d, 0xfb, 0xdf, 0xcf, 0x51, 0x10, 0x94, 0x31, 0xd0, 0x67, 0x07, 0x25,
  0xa0, 0xdb, 0x36, 0xca, 0x3c, 0x20, 0x6c, 0x00, 0xe8, 0xc7, 0x0b, 0x13,
  0x9f, 0x2b, 0x8f, 0xda, 0xd7, 0x09, 0x16, 0x39, 0x85, 0xfb, 0x23, 0xd6,
  0xbd, 0xca, 0x61, 0x58, 0x48, 0xa1, 0x19, 0xd7, 0x2f, 0x7c, 0x0b, 0x66,
  0x64, 0x8a, 0x57, 0x3c, 0xee, 0x48, 0x2e, 0x33, 0x5e, 0x0b, 0xe2, 0x2c,
  0xc0, 0xba, 0x96, 0x82, 0xc8, 0xa2, 0x8b, 0x56, 0xb1, 0x36, 0xe1, 0x05,
  0x77, 0x90, 0x12, 0xbf, 0xfb, 0xdd, 0x81, 0x77, 0xf2, 0xf5, 0xcb, 0x8f,
  0x36, 0x5c, 0x9f, 0x7b, 0x62, 0xaf, 0xaf, 0x47, 0xfb, 0x43, 0xc6, 0xff,
  0x53, 0x2a, 0xbb, 0x76, 0xdb, 0x68, 0xe8, 0xb1, 0x74, 0x54, 0xab, 0x61,
  0x7b, 0xd2, 0xc4, 0x99, 0x48, 0x34, 0x95, 0x45, 0xb5, 0xb8, 0xa6, 0x71,
  0x4c, 0xae, 0x70, 0x6c, 0xd3, 0xe6, 0x09, 0x7a, 0x0b, 0xf9, 0xf3, 0x98,
  0xfa, 0x25, 0xc8, 0xb0, 0xb7, 0x45, 0x50, 0x46, 0x61, 0x97, 0xc0, 0x17,
  0xde, 0x00, 0x69, 0xe9, 0xc6, 0x54, 0xd2, 0xde, 0xdd, 0xba, 0xd5, 0xb6,
  0x23, 0x1a, 0x31, 0xbc, 0xe5, 0x5f, 0xa9, 0xe4, 0x6b, 0xad, 0xd9, 0x59,
  0x24, 0x99, 0x3e, 0x5b, 0x32, 0x12, 0xd3, 0xc9, 0x00, 0x3e, 0xd0, 0xfe,
  0x65, 0xf9, 0xf6, 0x23, 0x26, 0xb3, 0xf8, 0x9e, 0x14, 0xca, 0xe8, 0x9d,
  0x69, 0x09, 0x1b, 0xf6, 0x1a, 0xe2, 0xf9, 0x5f, 0x48, 0xb1, 0xd1, 0xf6,
  0x63, 0xa5, 0xa4, 0x13, 0xc5, 0xcf, 0xc7, 0xf0, 0x6f, 0xa8, 0x88, 0x81,
  0xa9, 0x2f, 0xf4, 0xb3, 0xed, 0x99, 0x57, 0x6e, 0x96, 0x67, 0xc1, 0x79,
  0x63, 0xf3, 0x18, 0xa5, 0xb6, 0x9e, 0xfa, 0x9b, 0xf2, 0x1a, 0xc0, 0x7f,
  0x90, 0xe3, 0x4e, 0x50, 0x51, 0x9f, 0xb6, 0x4d, 0xd8, 0xfd, 0x6f, 0x58,
  0x6b, 0x78, 0x1d, 0xed, 0x6f, 0x30, 0xdc, 0xa5, 0xee, 0x5a, 0xea, 0x7b,
  0x27, 0xda, 0x78, 0x69, 0xdb, 0x5e, 0x6e, 0x00, 0x5c, 0x0e, 0xd5, 0x0c,
  0xbf, 0x3b, 0x90, 0xa1, 0xd5, 0x9c, 0xc8, 0x3c, 0x78, 0xb3, 0xb3, 0x7d,
  0x77, 0x41, 0xad, 0xb6, 0x6d, 0x18, 0x93, 0x0b, 0x6e, 0x2d, 0xc0, 0x94,
  0xc2, 0xc8, 0x97, 0x30, 0xe8, 0x47, 0x93, 0xb3, 0x09, 0x94, 0xd1, 0x33,
  0xce, 0x85, 0x57, 0xb3, 0xf3, 0xa1, 0x5f, 0x53, 0x26, 0x12, 0x43, 0x29,
  0x3f, 0x28, 0x9e, 0xb9, 0xe5, 0xf9, 0xa0, 0x26, 0x06, 0x5e, 0x08, 0xae,
  0x1a, 0xf1, 0xff, 0x67, 0x46, 0xf6, 0xe9, 0x5f, 0x23, 0x35, 0x72, 0x49,
  0xdf, 0x10, 0x55, 0x58, 0x68, 0x16, 0x5d, 0xe5, 0x99, 0x0f, 0x1d, 0xb7,
  0x23, 0x7f, 0x4e, 0x41, 0x08, 0x15, 0x58, 0xbb, 0x5e, 0x4d, 0x65, 0x5e,
  0xc7, 0x37, 0xc8, 0x9e, 0xe3, 0xf8, 0xad, 0x5a, 0x38, 0x2c, 0xaf, 0x5b,
  0xee, 0x67, 0x54, 0x2f, 0xc0, 0x2d, 0xa6, 0xaa, 0xf4, 0x58, 0x0a, 0xfa,
  0xa7, 0xeb, 0x5d, 0xaa, 0xd4, 0xfc, 0xb5, 0x09, 0x1d, 0x3b, 0x60, 0x9e,
  0x69, 0xd2, 0x3c, 0xae, 0xc3, 0x78, 0xa7, 0xbf, 0xd9, 0x9f, 0xde, 0xc8,
  0xd1, 0x3c, 0x36, 0xd5, 0x55, 0x14, 0xcf, 0xc7, 0xbe, 0x66, 0x24, 0xff,
  0xec, 0xf5, 0x36, 0x9e, 0xf1, 0x4a, 0x16, 0xc6, 0x43, 0x50, 0xb4, 0x54,
  0x09, 0x0b, 0xc6, 0x1f, 0xfc, 0x66, 0x53, 0x34, 0xff, 0xbc, 0x39, 0xf8,
  0xf1, 0xd1, 0x95, 0x31, 0x87, 0x5c, 0x4c, 0xd9, 0x60, 0xc8, 0x45, 0xbb,
  0x05, 0x4b, 0xdd, 0xaf, 0x2b, 0x5a, 0xc5, 0xe8, 0xb8, 0x44, 0xc4, 0xbe,
  0xfe, 0x42, 0x7f, 0x1a, 0xc1, 0x35, 0x8f, 0x7a, 0x94, 0x40, 0xee, 0x63,
  0x5d, 0x95, 0xc0, 0xa5, 0xde, 0x75, 0xbf, 0xac, 0x45, 0xab, 0x0c, 0x59,
  0x3d, 0x08, 0x2e, 0x75, 0xd9, 0x52, 0x97, 0x69, 0xd7, 0x36, 0xbd, 0x19,
  0x3c, 0xe2, 0x92, 0x0d, 0xd6, 0xfa, 0xa7, 0x5d, 0xa6, 0x15, 0xe3, 0xe3,
  0x03, 0xe5, 0x31, 0x62, 0x41, 0x04, 0x10, 0xca, 0xb7, 0xec, 0xb0, 0x02,
  0x9d, 0x14, 0x0c, 0x07, 0x08, 0x7f, 0xea, 0xab, 0x1a, 0x3d, 0x96, 0x57,
  0x62, 0x8f, 0x69, 0x77, 0xc4, 0x2a, 0x38, 0xd2, 0x5d, 0xfb, 0x20, 0x54,
  0x3d, 0x13, 0x9e, 0x74, 0xef, 0xa9, 0xa2, 0x3f, 0x56, 0x58, 0xd7, 0x6a,
  0xeb, 0x69, 0x92, 0xd3, 0x72, 0x3c, 0x4a, 0x13, 0x4e, 0x0d, 0xf4, 0x91,
  0xb8, 0x4c, 0xea, 0x71, 0xb8, 0x34, 0x60, 0x3b, 0x7c, 0x2d, 0x20, 0x6c,
  0x51, 0xda, 0xa1, 0x01, 0x21, 0x6d, 0xa7, 0x38, 0xd3, 0x98, 0x98, 0x30,
  0xfe, 0xcf, 0xf8, 0xe7, 0x96, 0x83, 0xa1, 0xf7, 0xf4, 0xa6, 0xa5, 0x88,
  0x52, 0x32, 0x9d, 0x60, 0xa1, 0xa7, 0x43, 0xa9, 0x72, 0x3e, 0x54, 0x38,
  0xc7, 0x1a, 0x6d, 0x13, 0x10, 0x18, 0x2b, 0x00, 0x67, 0x63, 0xe1, 0x68,
  0x81, 0x17, 0xa2, 0x52, 0x6b, 0x4c, 0x1a, 0x5c, 0xa4, 0x08, 0xe7, 0x4c,
  0x3f, 0xae, 0x24, 0x57, 0xfd, 0x4a, 0x73, 0x20, 0x23, 0x20, 0xf8, 0xc3,
  0x21, 0x30, 0x89, 0x97, 0x24, 0x9a, 0xba, 0x11, 0x53, 0xf1, 0x86, 0xe2,
  0x10, 0xa1, 0x72, 0xdb, 0xc9, 0x9c, 0x74, 0xfd, 0xbc, 0xbf, 0x66, 0xb4,
  0x90, 0x1b, 0x79, 0x6b, 0xee, 0x63, 0xff, 0xff, 0x04, 0x00, 0x00, 0x00,
  0x10, 0x00, 0x00, 0x00, 0xf3, 0xe8, 0xe4, 0xe5, 0x7f, 0xbb, 0x72, 0xff,
  0x75, 0x6d, 0xdb, 0xaf, 0x67, 0x74, 0x80, 0xcc, 0x0a, 0x64, 0xff, 0xff,
  0x04, 0x00, 0x00, 0x00, 0x10, 0x00, 0x00, 0x00, 0x7d, 0x7b, 0x7f, 0x78,
  0x75, 0x7d, 0x70, 0x7e, 0x76, 0x75, 0x75, 0x7c, 0x76, 0x70, 0x7c, 0x7c,
  0x26, 0x64, 0xff, 0xff, 0x04, 0x00, 0x00, 0x00, 0x10, 0x00, 0x00, 0x00,
  0x77, 0x79, 0x76, 0x70, 0x80, 0x73, 0x04, 0x78, 0x98, 0x11, 0x5b, 0x70,
  0x99, 0x91, 0x74, 0x76, 0x42, 0x64, 0xff, 0xff, 0x04, 0x00, 0x00, 0x00,
  0x00, 0x06, 0x00, 0x00, 0x38, 0xd9, 0x5d, 0x2e, 0xb2, 0x5e, 0x16, 0xa5,
  0xdf, 0x18, 0x4c, 0xec, 0x3d, 0x98, 0xf1, 0x1e, 0x09, 0xb8, 0x69, 0xaf,
  0xfe, 0xa7, 0xf7, 0x9e, 0xb0, 0x32, 0x26, 0x99, 0xa7, 0xa4, 0x92, 0xab,
  0x56, 0x46, 0x65, 0xf8, 0xf0, 0x1e, 0x18, 0xed, 0x0d, 0x66, 0x51, 0xc3,
  0x10, 0xd3, 0xc5, 0x4d, 0x61, 0xa7, 0x44, 0x4b, 0xc6, 0xfc, 0xa7, 0x43,
  0x09, 0xa7, 0xb6, 0xbf, 0xf6, 0xdd, 0xd2, 0x02, 0x08, 0xb7, 0xd2, 0x46,
  0xf7, 0xbb, 0xf7, 0xc2, 0x2d, 0x31, 0x57, 0xe9, 0xb0, 0x81, 0xeb, 0xcb,
  0xda, 0x97, 0x69, 0x62, 0xbb, 0xb8, 0x23, 0xe1, 0xc8, 0xc1, 0x5c, 0xd1,
  0xaa, 0x5b, 0xe5, 0x2a, 0x2a, 0xfa, 0x8f, 0xa2, 0xef, 0x93, 0x0e, 0xc3,
  0xfb, 0x2f, 0xfa, 0x3e, 0x31, 0x16, 0xb0, 0xa4, 0xb0, 0x34, 0xcf, 0x9d,
  0x56, 0xab, 0x95, 0xc3, 0x5f, 0xa1, 0xad, 0xd9, 0x5f, 0xb3, 0x38, 0x4a,
  0xb2, 0x30, 0x9b, 0xf9, 0x26, 0x38, 0xa8, 0xc5, 0x05, 0xe1, 0xf9, 0xaf,
  0x49, 0x02, 0xb2, 0xbe, 0xb7, 0xd6, 0x6a, 0xaf, 0x87, 0x92, 0x81, 0x9f,
  0x2f, 0x12, 0xca, 0x50, 0xca, 0x00, 0x9a, 0xfa, 0xc7, 0x8b, 0xbb, 0xa5,
  0xe6, 0x25, 0xa0, 0xa7, 0x17, 0x20, 0xdd, 0xeb, 0x83, 0x40, 0x57, 0x97,
  0xd2, 0xfa, 0x37, 0x22, 0xe2, 0x07, 0xc7, 0x50, 0x1a, 0xb9, 0xc0, 0x1e,
  0x9c, 0x8c, 0xdc, 0xe8, 0x81, 0xa4, 0x40, 0x8b, 0x0b, 0xb9, 0x53, 0xe2,
  0xfa, 0xb1, 0xbc, 0xab, 0xb3, 0x22, 0x2d, 0xbb, 0x54, 0x28, 0xff, 0x48,
  0xac, 0xf4, 0x4f, 0xeb, 0xc5, 0xf1, 0xb9, 0x2d, 0x1a, 0x14, 0x14, 0x0f,
  0xa8, 0xb0, 0x47, 0x9d, 0x46, 0x9a, 0x90, 0xac, 0x16, 0x5e, 0xe5, 0xf2,
  0x24, 0x30, 0xb3, 0x5d, 0x97, 0xba, 0x37, 0xdf, 0x58, 0xd0, 0xda, 0x4d,
  0x5b, 0x18, 0xfd, 0x3b, 0x3a, 0x00, 0xc9, 0x4b, 0x38, 0x9e, 0xad, 0x1d,
  0xad, 0x2e, 0x33, 0xbf, 0xf2, 0x60, 0x24, 0x11, 0xd5, 0x4c, 0x4c, 0x5f,
  0x0e, 0x26, 0x13, 0x0f, 0x8f, 0xcf, 0xa2, 0x53, 0xcb, 0x1b, 0x6e, 0x5a,
  0x2a, 0xdd, 0x92, 0x01, 0x0d, 0xf8, 0xd5, 0x53, 0x13, 0x25, 0x03, 0xef,
  0x03, 0xf9, 0x72, 0xc5, 0xef, 0xfb, 0xe4, 0xd9, 0xbe, 0x0e, 0x64, 0xe3,
  0xad, 0x33, 0xe6, 0x19, 0xb9, 0x2b, 0xee, 0x6c, 0x8b, 0xe9, 0x66, 0xc7,
  0x39, 0x4a, 0xde, 0x07, 0x9d, 0x9a, 0x4f, 0xff, 0xeb, 0xc9, 0x55, 0x34,
  0x8e, 0x5f, 0x94, 0x41, 0x72, 0x60, 0x55, 0x2e, 0xb2, 0xff, 0x03, 0x00,
  0xe3, 0x90, 0x07, 0x11, 0x43, 0xe2, 0x2c, 0x37, 0x24, 0xab, 0x69, 0xa7,
  0x5f, 0x04, 0xad, 0x6c, 0xf4, 0x9e, 0xa6, 0xc8, 0x49, 0x81, 0xa9, 0x26,
  0x55, 0x1a, 0x13, 0xa7, 0x9b, 0x08, 0xd4, 0x93, 0xee, 0x0e, 0x0a, 0x1d,
  0x9c, 0x3e, 0xc7, 0xc1, 0x16, 0x93, 0xb8, 0x8a, 0x45, 0x31, 0x92, 0xce,
  0x3b, 0x28, 0xc4, 0xfe, 0x31, 0x82, 0x41, 0x92, 0x60, 0xfe, 0x22, 0x87,
  0x39, 0xc2, 0x46, 0x40, 0xab, 0x4d, 0x86, 0xdc, 0xfe, 0x52, 0xcb, 0xf9,
  0x64, 0x5a, 0x2a, 0x95, 0xaf, 0x38, 0x88, 0x06, 0xe1, 0x62, 0xb0, 0x58,
  0xa0, 0x83, 0x10, 0xf8, 0xb4, 0x3c, 0x68, 0xa4, 0x9e, 0x5f, 0x36, 0xde,
  0x4e, 0xeb, 0xca, 0xb5, 0x34, 0x15, 0x81, 0xd8, 0xcc, 0xe1, 0xcd, 0xdf,
  0x47, 0x6e, 0xf6, 0x0b, 0x54, 0x1c, 0xab, 0x8a, 0x22, 0x20, 0xfd, 0xed,
  0xa7, 0xfc, 0xe1, 0xaf, 0x90, 0x35, 0xbb, 0x52, 0xd0, 0xc2, 0xfa, 0x29,
  0x11, 0xe4, 0xff, 0xb8, 0xcf, 0xb7, 0x5e, 0x8b, 0x9d, 0x66, 0x1d, 0xfd,
  0x90, 0xb9, 0xce, 0x87, 0xb3, 0xfe, 0xf8, 0xdd, 0x0e, 0x47, 0xda, 0xd0,
  0xdc, 0x03, 0xfa, 0x67, 0x55, 0xc2, 0x38, 0x7b, 0xf8, 0x4c, 0x84, 0x57,
  0x11, 0x9c, 0xf3, 0x39, 0x31, 0x78, 0x3e, 0xb4, 0xc4, 0xa2, 0x69, 0x57,
  0xc7, 0x9f, 0x35, 0xa8, 0x26, 0x17, 0xc6, 0x65, 0x86, 0x0c, 0x9b, 0x3c,
  0xdb, 0xaa, 0x1b, 0xfc, 0x04, 0xda, 0x0e, 0x4f, 0xe2, 0x21, 0xd0, 0xb3,
  0x48, 0x60, 0xcc, 0x45, 0xd6, 0xe1, 0x16, 0xb0, 0xdc, 0xc2, 0x79, 0x02,
  0x85, 0x31, 0x23, 0x57, 0x7f, 0xd9, 0xbb, 0xdb, 0x1c, 0xfc, 0xba, 0x66,
  0xa7, 0xe2, 0xc9, 0x57, 0x46, 0x17, 0xba, 0x9c, 0x1b, 0x83, 0x3a, 0x88,
  0x66, 0x1d, 0x38, 0xd4, 0x22, 0x86, 0xb8, 0xa4, 0x7b, 0x96, 0x62, 0xe8,
  0x66, 0x71, 0x2f, 0xb9, 0x8b, 0x83, 0x2f, 0xf9, 0x1c, 0x08, 0x70, 0x05,
  0x88, 0x7e, 0x6c, 0xd6, 0xcc, 0xcb, 0x1d, 0xbb, 0x3f, 0x17, 0x0c, 0xb6,
  0x8e, 0xad, 0x81, 0x07, 0x4f, 0x24, 0xee, 0x67, 0x1b, 0x4d, 0xc2, 0x9a,
  0xa6, 0x6d, 0x5d, 0x4e, 0x9d, 0x82, 0xd8, 0x3a, 0x59, 0x62, 0xc1, 0xaf,
  0x61, 0xc7, 0xb3, 0x90, 0x68, 0xb3, 0x37, 0xcc, 0x74, 0xf6, 0x9e, 0xd9,
  0xc3, 0xed, 0x4c, 0xef, 0x97, 0x0e, 0x8e, 0x16, 0xed, 0x0c, 0xf7, 0xd8,
  0xf8, 0xe7, 0xa9, 0xf5, 0x65, 0x8f, 0x3f, 0x89, 0xbe, 0x2f, 0xc1, 0xf1,
  0x38, 0x3c, 0xb9, 0x40, 0xfb, 0xc0, 0x44, 0x15, 0xbb, 0x38, 0x66, 0x24,
  0x4f, 0x1d, 0x13, 0xdc, 0x33, 0x09, 0xcd, 0x38, 0x12, 0x0b, 0xc7, 0x15,
  0xc2, 0xf5, 0x92, 0xcd, 0xbe, 0xf0, 0x52, 0x4d, 0xeb, 0xfa, 0x42, 0x0c,
  0xbc, 0xa1, 0xd4, 0x14, 0x12, 0xbb, 0x1e, 0x48, 0xa8, 0x53, 0xe7, 0x55,
  0x21, 0x9d, 0x31, 0xe4, 0x56, 0xf3, 0xa7, 0xbb, 0xa8, 0x09, 0x01, 0x81,
  0x4b, 0xaa, 0xd3, 0xa7, 0xb0, 0xb7, 0xac, 0x93, 0xa4, 0x31, 0xa1, 0xb2,
  0x60, 0x1b, 0x1f, 0x36, 0xd7, 0xc6, 0x22, 0xb2, 0x4d, 0xef, 0xb3, 0x49,
  0x4b, 0xb1, 0xf7, 0x07, 0x41, 0x0a, 0x61, 0x72, 0xad, 0x5f, 0x19, 0x8a,
  0xd4, 0xb2, 0x53, 0x70, 0xd0, 0xd0, 0x5d, 0x6e, 0x3f, 0xd6, 0x8f, 0x15,
  0x02, 0x3b, 0xe6, 0x52, 0xff, 0xb7, 0x00, 0x09, 0x2e, 0xed, 0x68, 0x20,
  0x8f, 0xed, 0x35, 0x8d, 0xb9, 0xf6, 0xd1, 0xe8, 0x38, 0x03, 0xe1, 0x02,
  0x81, 0xfc, 0xee, 0xcb, 0xef, 0x64, 0x8a, 0xad, 0x8a, 0x24, 0x0d, 0x5f,
  0xd8, 0x9e, 0x44, 0xde, 0xaa, 0x9a, 0x8d, 0x97, 0x2d, 0x26, 0x83, 0x06,
  0x89, 0x97, 0x16, 0x5b, 0x68, 0x18, 0x23, 0x05, 0x00, 0x45, 0x24, 0x50,
  0x96, 0xab, 0xee, 0x10, 0xad, 0xf1, 0x37, 0x5c, 0x27, 0x86, 0xa2, 0xd6,
  0x3f, 0xd1, 0x55, 0x69, 0x73, 0x18, 0x50, 0xb0, 0x89, 0xae, 0x24, 0x49,
  0x94, 0xea, 0x6f, 0x39, 0x5e, 0xf0, 0xe6, 0xe2, 0xe3, 0x8d, 0x45, 0x23,
  0x28, 0x37, 0x10, 0xa7, 0xc3, 0xeb, 0x4d, 0x5a, 0x18, 0xed, 0xf2, 0xf4,
  0x6a, 0x3c, 0x04, 0xb7, 0xa8, 0x41, 0x57, 0x1c, 0x31, 0x01, 0x48, 0xec,
  0x30, 0xc0, 0x2c, 0x5c, 0x48, 0x06, 0x40, 0x5a, 0x0b, 0x65, 0x23, 0x02,
  0x60, 0x9a, 0x8a, 0xfa, 0x5b, 0xf1, 0x94, 0xfd, 0x21, 0x01, 0xc7, 0x1c,
  0xe5, 0xa3, 0x81, 0x6f, 0xa6, 0x5f, 0x3d, 0xee, 0xc1, 0x02, 0xf7, 0x33,
  0x00, 0x6a, 0x4a, 0xf6, 0x86, 0xd1, 0x55, 0x9e, 0x96, 0xb1, 0xa8, 0x9c,
  0xf9, 0x6b, 0xc5, 0xe8, 0x77, 0x23, 0x2e, 0xf5, 0x92, 0xda, 0x18, 0x73,
  0x55, 0xee, 0xae, 0xea, 0x4f, 0xe4, 0xbb, 0x6b, 0xc6, 0xe5, 0xa5, 0x5d,
  0xaa, 0xfc, 0x2c, 0x2a, 0x23, 0xa0, 0x3b, 0xc7, 0x69, 0x50, 0x9a, 0x91,
  0x37, 0xd4, 0x84, 0xa2, 0xd3, 0x2f, 0x9b, 0x77, 0x4a, 0xc7, 0x47, 0x42,
  0x28, 0x61, 0xb9, 0x50, 0x61, 0x74, 0xec, 0x2d, 0xcd, 0x41, 0xcb, 0x29,
  0x81, 0x0e, 0x2c, 0x3f, 0xf2, 0xed, 0xe5, 0x17, 0x66, 0xf3, 0x2a, 0xa3,
  0xc0, 0x0f, 0x2d, 0xa4, 0xfc, 0x84, 0x66, 0xfd, 0x9e, 0x9b, 0x7c, 0xd1,
  0x67, 0x01, 0xbb, 0x52, 0xf5, 0x46, 0xc1, 0x01, 0xfd, 0x2c, 0xc5, 0xfe,
  0x5f, 0x97, 0x5d, 0xab, 0xcd, 0x28, 0x46, 0xdc, 0x9c, 0xbf, 0xb2, 0xfe,
  0x36, 0x5c, 0x26, 0x23, 0x42, 0xa5, 0x73, 0xb4, 0xfa, 0xc4, 0x20, 0x27,
  0xd1, 0xa9, 0xab, 0xf9, 0x8f, 0x26, 0x8b, 0xf1, 0xa7, 0xe6, 0x35, 0x5b,
  0x36, 0x3a, 0x1e, 0xb7, 0xc2, 0xb0, 0xde, 0x04, 0x3f, 0xe9, 0x90, 0xb3,
  0x5d, 0x0c, 0xd9, 0x05, 0xc2, 0xab, 0x44, 0xd0, 0x0d, 0x10, 0x17, 0x5c,
  0x81, 0xba, 0x93, 0x69, 0x4e, 0x2d, 0xb2, 0xed, 0xfe, 0x20, 0x23, 0xea,
  0xa0, 0x9a, 0x65, 0x0d, 0xaf, 0x72, 0xe2, 0x5d, 0x3a, 0xa4, 0xa7, 0xe8,
  0x43, 0xa9, 0x0d, 0xe8, 0xeb, 0x56, 0x19, 0xf1, 0xd9, 0xc1, 0x70, 0xb4,
  0xbe, 0x0b, 0xce, 0xb7, 0xe7, 0xbb, 0xb5, 0x5e, 0x4f, 0xc2, 0xc0, 0x68,
  0x14, 0x53, 0x9f, 0x62, 0x9f, 0x9b, 0x8c, 0x0b, 0x9c, 0xa9, 0xd2, 0x28,
  0x77, 0x78, 0xa5, 0x28, 0xe0, 0xef, 0x93, 0xd6, 0x72, 0xcc, 0xfe, 0x60,
  0x10, 0x52, 0x0d, 0xc2, 0xde, 0xa1, 0xee, 0x64, 0x2a, 0x40, 0xd2, 0x79,
  0xee, 0x83, 0xea, 0xb0, 0x20, 0xfa, 0xb1, 0x4c, 0xae, 0x99, 0xb4, 0x81,
  0xfd, 0xa4, 0x49, 0x3a, 0xbf, 0x3d, 0xec, 0xf2, 0xdd, 0x27, 0x3c, 0x64,
  0xe4, 0x6a, 0x49, 0xa4, 0x3c, 0x90, 0x87, 0x46, 0x1e, 0x36, 0xf2, 0x0b,
  0xa1, 0xb7, 0xc5, 0xe4, 0x90, 0x00, 0xa5, 0xe6, 0xc5, 0x6b, 0xbb, 0xb1,
  0x88, 0x32, 0x39, 0xa0, 0xab, 0xa4, 0xcf, 0x43, 0xc1, 0xe4, 0xb9, 0x9a,
  0x0f, 0xea, 0x81, 0x5b, 0xba, 0xe5, 0x2a, 0xd3, 0x92, 0xf2, 0x09, 0xb7,
  0xfe, 0x23, 0x26, 0x28, 0xcc, 0xcf, 0xad, 0x34, 0xa3, 0x15, 0x95, 0x49,
  0x34, 0xdc, 0xc7, 0x52, 0x2b, 0x27, 0xe6, 0x07, 0x47, 0xc7, 0x08, 0x61,
  0x0f, 0x09, 0x17, 0x4a, 0xf3, 0xc2, 0xce, 0x4a, 0x58, 0xe9, 0xc5, 0xa1,
  0x72, 0x36, 0xf4, 0x56, 0x1c, 0xd1, 0x12, 0x09, 0x49, 0x5d, 0x0d, 0xf5,
  0x4f, 0xc5, 0xc6, 0xfa, 0xf1, 0x0e, 0x41, 0xfe, 0x39, 0xf4, 0x2f, 0x14,
  0xe4, 0xdc, 0x68, 0xfd, 0xb9, 0x5d, 0xa5, 0xd8, 0x60, 0x28, 0x30, 0x6f,
  0x34, 0xde, 0x0d, 0x52, 0xca, 0x0b, 0xf3, 0x0f, 0xc9, 0xc7, 0x8a, 0xdd,
  0xaf, 0xb1, 0x39, 0xc0, 0xe4, 0x81, 0x4c, 0xd8, 0x98, 0x0f, 0x54, 0x90,
  0xee, 0x19, 0x0a, 0x02, 0xa2, 0xe6, 0x8e, 0xa0, 0xd2, 0x34, 0x4d, 0x20,
  0x04, 0x3a, 0x50, 0xe8, 0x64, 0xaa, 0x56, 0xbb, 0xaf, 0x24, 0xa2, 0x19,
  0x49, 0xd1, 0xb7, 0xb0, 0x52, 0xb9, 0xd7, 0x69, 0xfb, 0xe7, 0x1e, 0x42,
  0x6d, 0x08, 0xfd, 0xd9, 0xe9, 0x2a, 0x54, 0x25, 0x59, 0xfc, 0xe7, 0xa1,
  0xea, 0x1d, 0xa5, 0x1b, 0x5c, 0x9e, 0xf3, 0x10, 0x39, 0xf7, 0xb3, 0x0d,
  0x49, 0x1e, 0xa6, 0xa4, 0xf4, 0x24, 0x9b, 0xeb, 0xb8, 0xce, 0xaa, 0x50,
  0xae, 0xa9, 0x4d, 0x3e, 0xeb, 0x4b, 0x25, 0xe9, 0xfe, 0x4e, 0xeb, 0x12,
  0x7f, 0xab, 0xbc, 0x60, 0x5f, 0x3d, 0x93, 0x30, 0x18, 0x19, 0x77, 0x46,
  0xb0, 0x27, 0x51, 0x38, 0xeb, 0x8e, 0x56, 0x9e, 0xe9, 0x21, 0xff, 0x34,
  0xbf, 0xc7, 0xa4, 0x57, 0xf6, 0xf2, 0xdf, 0x37, 0xf3, 0xd0, 0x56, 0x15,
  0x9d, 0x19, 0x2c, 0x67, 0x21, 0x26, 0xbe, 0xc6, 0xd1, 0xd2, 0x47, 0x50,
  0x32, 0x28, 0x9f, 0xf3, 0x33, 0x0d, 0x99, 0xf0, 0x13, 0xed, 0x1f, 0xde,
  0xa8, 0x94, 0xf6, 0x90, 0xf0, 0xce, 0xc8, 0xe4, 0x6a, 0x2f, 0xc3, 0x87,
  0x22, 0x12, 0xe1, 0x87, 0x4b, 0x24, 0x30, 0x7d, 0xb0, 0x75, 0x85, 0x04,
  0x86, 0x1f, 0xd7, 0xd5, 0x4e, 0x6a, 0xff, 0xff, 0x04, 0x00, 0x00, 0x00,
  0x10, 0x00, 0x00, 0x00, 0x3c, 0xf7, 0x29, 0xf0, 0xe0, 0x09, 0x2e, 0xca,
  0x57, 0x1d, 0xc3, 0x0b, 0x1f, 0xb5, 0x36, 0x80, 0x6a, 0x6a, 0xff, 0xff,
  0x04, 0x00, 0x00, 0x00, 0x10, 0x00, 0x00, 0x00, 0x74, 0x77, 0x6c, 0x7a,
  0x75, 0x79, 0x77, 0x76, 0x7b, 0x70, 0x70, 0x78, 0x7b, 0x73, 0x7f, 0x6a,
  0x86, 0x6a, 0xff, 0xff, 0x04, 0x00, 0x00, 0x00, 0x10, 0x00, 0x00, 0x00,
  0x90, 0x79, 0xf0, 0xe9, 0xc7, 0xa5, 0x5b, 0xc4, 0x4f, 0xe8, 0xc6, 0x06,
  0x27, 0x80, 0x29, 0xab, 0xa2, 0x6a, 0xff, 0xff, 0x04, 0x00, 0x00, 0x00,
  0x40, 0x06, 0x00, 0x00, 0x53, 0x30, 0x27, 0x2d, 0x3c, 0x39, 0x2f, 0x21,
  0x26, 0x26, 0x2c, 0x2b, 0x18, 0x11, 0x33, 0x32, 0x1c, 0x27, 0x1e, 0x36,
  0x48, 0x3d, 0x20, 0x1c, 0x19, 0x19, 0x1b, 0x12, 0x0d, 0x15, 0x2b, 0x36,
  0x27, 0x07, 0xf9, 0xd8, 0xc6, 0xc1, 0xbf, 0xb7, 0xc1, 0xd9, 0xd8, 0xda,
  0xe2, 0xdd, 0xe2, 0xd9, 0xcb, 0xbe, 0x9e, 0x9b, 0x93, 0x89, 0x91, 0x8b,
  0x97, 0x99, 0x9f, 0xa8, 0xa3, 0xaa, 0xa8, 0x9d, 0xa0, 0xa2, 0x9e, 0xa2,
  0xa0, 0xa3, 0xae, 0xb3, 0xca, 0xb0, 0xa6, 0x85, 0x81, 0x86, 0x9e, 0xb2,
  0xbd, 0xce, 0xdb, 0xd5, 0xd7, 0xdc, 0xe6, 0xea, 0xf3, 0xe7, 0xdc, 0xd9,
  0xe4, 0xe5, 0xe6, 0xdc, 0xf3, 0xf5, 0xf1, 0xfb, 0xf2, 0xf3, 0x03, 0x0b,
  0x13, 0x10, 0x1c, 0x27, 0x28, 0x2e, 0x30, 0x28, 0x24, 0x13, 0x09, 0x00,
  0x0e, 0x0d, 0x22, 0x1c, 0x29, 0x31, 0x22, 0x26, 0x19, 0x14, 0x25, 0x30,
  0x3b, 0x3f, 0x36, 0x3c, 0x2c, 0x27, 0x2b, 0x08, 0xfd, 0xfe, 0xf5, 0xfd,
  0x00, 0x14, 0x1a, 0x1c, 0x1e, 0x0d, 0x00, 0x15, 0x1b, 0x1e, 0x34, 0x34,
  0x37, 0x24, 0x1a, 0x03, 0x08, 0x07, 0x10, 0x0e, 0x07, 0x1c, 0x27, 0x32,
  0x46, 0x34, 0x2e, 0x08, 0x03, 0xf6, 0x07, 0x15, 0x3b, 0x2c, 0x26, 0x2c,
  0x1f, 0x27, 0x1b, 0x0b, 0x02, 0x0b, 0x1a, 0x1b, 0x31, 0x2d, 0x39, 0x39,
  0x3c, 0x29, 0x11, 0x03, 0xf1, 0xfc, 0x00, 0x11, 0x20, 0x31, 0x4d, 0x6a,
  0x00, 0x00, 0x00, 0x00, 0x00, 0x00, 0x00, 0x00, 0x00, 0x00, 0x00, 0x00,
  0x00, 0x00, 0x00, 0x00, 0x00, 0x00, 0x00, 0x00, 0x00, 0x00, 0x00, 0x00,
  0x00, 0x00, 0x00, 0x00, 0x00, 0x00, 0x00, 0x00, 0x00, 0x00, 0x00, 0x00,
  0x00, 0x00, 0x00, 0x00, 0x00, 0x00, 0x00, 0x00, 0x00, 0x00, 0x00, 0x00,
  0x00, 0x00, 0x00, 0x00, 0x00, 0x00, 0x00, 0x00, 0x00, 0x00, 0x00, 0x00,
  0x00, 0x00, 0x00, 0x00, 0x00, 0x00, 0x00, 0x00, 0x00, 0x00, 0x00, 0x00,
  0x00, 0x00, 0x00, 0x00, 0x00, 0x00, 0x00, 0x00, 0x00, 0x00, 0x00, 0x00,
  0x00, 0x00, 0x00, 0x00, 0x00, 0x00, 0x00, 0x00, 0x00, 0x00, 0x00, 0x00,
  0x00, 0x00, 0x00, 0x00, 0x00, 0x00, 0x00, 0x00, 0x00, 0x00, 0x00, 0x00,
  0x00, 0x00, 0x00, 0x00, 0x00, 0x00, 0x00, 0x00, 0x00, 0x00, 0x00, 0x00,
  0x00, 0x00, 0x00, 0x00, 0x00, 0x00, 0x00, 0x00, 0x00, 0x00, 0x00, 0x00,
  0x00, 0x00, 0x00, 0x00, 0x00, 0x00, 0x00, 0x00, 0x00, 0x00, 0x00, 0x00,
  0x00, 0x00, 0x00, 0x00, 0x00, 0x00, 0x00, 0x00, 0x00, 0x00, 0x00, 0x00,
  0x00, 0x00, 0x00, 0x00, 0x00, 0x00, 0x00, 0x00, 0x00, 0x00, 0x00, 0x00,
  0x00, 0x00, 0x00, 0x00, 0x00, 0x00, 0x00, 0x00, 0x00, 0x00, 0x00, 0x00,
  0x00, 0x00, 0x00, 0x00, 0x00, 0x00, 0x00, 0x00, 0x00, 0x00, 0x00, 0x00,
  0x00, 0x00, 0x00, 0x00, 0x00, 0x00, 0x00, 0x00, 0x00, 0x00, 0x00, 0x00,
  0x00, 0x00, 0x00, 0x00, 0x00, 0x00, 0x00, 0x00, 0x00, 0x00, 0x00, 0x00,
  0x00, 0x00, 0x00, 0x00, 0x00, 0x00, 0x00, 0x00, 0x00, 0x00, 0x00, 0x00,
  0x00, 0x00, 0x00, 0x00, 0x00, 0x00, 0x00, 0x00, 0x00, 0x00, 0x00, 0x00,
  0x00, 0x00, 0x00, 0x00, 0x00, 0x00, 0x00, 0x00, 0x00, 0x00, 0x00, 0x00,
  0x00, 0x00, 0x00, 0x00, 0x00, 0x00, 0x00, 0x00, 0x00, 0x00, 0x00, 0x00,
  0x00, 0x00, 0x00, 0x00, 0x00, 0x00, 0x00, 0x00, 0x00, 0x00, 0x00, 0x00,
  0x00, 0x00, 0x00, 0x00, 0x00, 0x00, 0x00, 0x00, 0x00, 0x00, 0x00, 0x00,
  0x00, 0x00, 0x00, 0x00, 0x00, 0x00, 0x00, 0x00, 0x00, 0x00, 0x00, 0x00,
  0x00, 0x00, 0x00, 0x00, 0x00, 0x00, 0x00, 0x00, 0x00, 0x00, 0x00, 0x00,
  0x00, 0x00, 0x00, 0x00, 0x00, 0x00, 0x00, 0x00, 0x00, 0x00, 0x00, 0x00,
  0x00, 0x00, 0x00, 0x00, 0x00, 0x00, 0x00, 0x00, 0x00, 0x00, 0x00, 0x00,
  0x00, 0x00, 0x00, 0x00, 0x00, 0x00, 0x00, 0x00, 0x00, 0x00, 0x00, 0x00,
  0x00, 0x00, 0x00, 0x00, 0x00, 0x00, 0x00, 0x00, 0x00, 0x00, 0x00, 0x00,
  0x00, 0x00, 0x00, 0x00, 0x00, 0x00, 0x00, 0x00, 0x00, 0x00, 0x00, 0x00,
  0x00, 0x00, 0x00, 0x00, 0x00, 0x00, 0x00, 0x00, 0x00, 0x00, 0x00, 0x00,
  0x00, 0x00, 0x00, 0x00, 0x00, 0x00, 0x00, 0x00, 0x00, 0x00, 0x00, 0x00,
  0x00, 0x00, 0x00, 0x00, 0xc8, 0xd9, 0xe4, 0x03, 0x0c, 0x15, 0xf4, 0xf5,
  0x09, 0x27, 0x3f, 0x32, 0x0e, 0x0c, 0x0f, 0x0c, 0x04, 0xe6, 0xc4, 0xc0,
  0xe3, 0xfe, 0x1e, 0x35, 0x47, 0x32, 0x00, 0xc9, 0xa3, 0xa9, 0xc9, 0xf1,
  0xfc, 0xe7, 0xde, 0xe5, 0xf3, 0x2d, 0x4d, 0x32, 0x12, 0x0e, 0x1b, 0x2e,
  0x38, 0x12, 0xe1, 0xc8, 0xd4, 0xff, 0x0c, 0x06, 0xea, 0xe1, 0xf5, 0x34,
  0x40, 0x3e, 0x10, 0xde, 0xbd, 0x8d, 0x97, 0xa8, 0xc8, 0x01, 0x30, 0x4d,
  0x43, 0x2c, 0x0d, 0x09, 0x0f, 0x17, 0x2a, 0x24, 0x09, 0x05, 0x19, 0x00,
  0xf9, 0xd0, 0xa5, 0xb2, 0xf2, 0x24, 0x42, 0x64, 0x4b, 0x10, 0xf6, 0xbd,
  0x92, 0x97, 0x95, 0xbd, 0xf3, 0x21, 0x3b, 0x46, 0x45, 0x3f, 0x40, 0x1b,
  0x04, 0xf9, 0xd8, 0xe6, 0xf2, 0x16, 0x2a, 0x10, 0xec, 0xcd, 0xba, 0xd0,
  0xe3, 0x1b, 0x30, 0x42, 0x32, 0x19, 0xd1, 0xbb, 0xa7, 0x8b, 0xb8, 0xd8,
  0xfc, 0x2d, 0x48, 0x48, 0x51, 0x4e, 0x36, 0x25, 0xfd, 0xe5, 0xd2, 0xd2,
  0xc2, 0xd1, 0xf4, 0x02, 0x1e, 0x37, 0x42, 0x25, 0x0e, 0xec, 0xe4, 0xe4,
  0xe0, 0xe5, 0xcb, 0xcb, 0xd8, 0xe9, 0xf3, 0xfe, 0xf8, 0x08, 0x2b, 0x4b,
  0x46, 0x2b, 0xfb, 0xe7, 0xd9, 0xed, 0xeb, 0xd2, 0xc1, 0xe9, 0x09, 0x2f,
  0x38, 0x1e, 0x0e, 0xee, 0x00, 0x10, 0x14, 0xef, 0xec, 0xda, 0xcf, 0xd6,
  0xdc, 0xd0, 0xe5, 0x2e, 0x5c, 0x7f, 0x4f, 0x09, 0xbc, 0xb3, 0xb1, 0xfd,
  0x5f, 0x5b, 0x5e, 0x42, 0x27, 0x1e, 0x0f, 0x07, 0x13, 0x12, 0x26, 0x34,
  0x3d, 0x32, 0x26, 0x12, 0x09, 0x0a, 0x0a, 0x17, 0x07, 0x0f, 0x14, 0x15,
  0x1d, 0x23, 0x14, 0x0f, 0x1b, 0x0f, 0x1d, 0x11, 0x1c, 0x26, 0x13, 0x14,
  0x0d, 0x0d, 0xfe, 0x00, 0xfa, 0xf2, 0xfa, 0x0b, 0x26, 0x27, 0x2c, 0x32,
  0x1d, 0x25, 0x15, 0x06, 0xeb, 0xee, 0xf3, 0x06, 0x18, 0x1c, 0x1d, 0x14,
  0x07, 0x0f, 0x0e, 0x00, 0xff, 0x02, 0x0e, 0x1c, 0x2d, 0x37, 0x39, 0x2f,
  0x2a, 0x2d, 0x18, 0x21, 0x18, 0x11, 0x16, 0x08, 0xfe, 0xf1, 0xf7, 0x00,
  0x07, 0x14, 0x18, 0x17, 0x22, 0x1e, 0x1d, 0x15, 0x0f, 0x11, 0x22, 0x22,
  0x1e, 0x17, 0x13, 0x1b, 0x38, 0x3c, 0x34, 0x2d, 0x19, 0x15, 0x01, 0xf5,
  0xfc, 0xea, 0xf1, 0xef, 0xef, 0xf2, 0xf1, 0xfa, 0x04, 0x12, 0x1d, 0x0b,
  0x04, 0x09, 0x00, 0x02, 0x05, 0x09, 0x19, 0x22, 0x34, 0x4b, 0x71, 0x67,
  0x6d, 0x60, 0x47, 0x3a, 0x36, 0x3e, 0x4d, 0x58, 0x52, 0x47, 0x56, 0x4f,
  0x4d, 0x5f, 0x50, 0x47, 0x47, 0x4c, 0x4d, 0x60, 0x62, 0x50, 0x58, 0x54,
  0x58, 0x63, 0x57, 0x58, 0x5f, 0x70, 0x71, 0x77, 0x73, 0x61, 0x54, 0x52,
  0x56, 0x50, 0x66, 0x66, 0x60, 0x65, 0x4f, 0x51, 0x42, 0x4b, 0x4d, 0x37,
  0x3f, 0x31, 0x49, 0x56, 0x71, 0x7f, 0x6e, 0x55, 0x37, 0x29, 0x26, 0x32,
  0x37, 0x39, 0x40, 0x3d, 0x38, 0x35, 0x20, 0x2a, 0xe3, 0xf9, 0x08, 0x0f,
  0x18, 0x1f, 0x26, 0x36, 0x39, 0x35, 0x25, 0x17, 0x06, 0xf4, 0xe7, 0xdf,
  0xc9, 0xbe, 0xb4, 0xb8, 0xbb, 0xcf, 0xe4, 0xfd, 0x0f, 0x28, 0x33, 0x3c,
  0x54, 0x59, 0x67, 0x57, 0x3b, 0x12, 0x04, 0xdb, 0xc2, 0xae, 0xa3, 0x8d,
  0x94, 0x97, 0x9d, 0xb6, 0xd9, 0xfd, 0x27, 0x3c, 0x65, 0x74, 0x6c, 0x66,
  0x4c, 0x3d, 0x23, 0x04, 0xdd, 0xb3, 0x9b, 0x8b, 0x86, 0x86, 0x96, 0xac,
  0xc9, 0xf1, 0x17, 0x32, 0x4b, 0x59, 0x68, 0x78, 0x67, 0x63, 0x34, 0x09,
  0xe9, 0xca, 0xa4, 0x8f, 0x81, 0x85, 0x9e, 0xa6, 0xc0, 0xda, 0x0b, 0x2c,
  0x50, 0x5d, 0x5c, 0x57, 0x55, 0x45, 0x3c, 0x1b, 0xfb, 0xdc, 0xc7, 0xb3,
  0xac, 0xae, 0xb8, 0xc4, 0xdd, 0xf0, 0x03, 0x1d, 0x30, 0x33, 0x39, 0x30,
  0x2b, 0x20, 0x1e, 0x03, 0xe6, 0xd0, 0xcc, 0xdd, 0xee, 0xf1, 0xf3, 0x07,
  0x0a, 0x1d, 0x1e, 0x22, 0x1e, 0x0d, 0x06, 0x06, 0xf1, 0xe0, 0xdc, 0xd4,
  0xd4, 0xf7, 0x02, 0x02, 0x0c, 0x21, 0x33, 0x41, 0x3c, 0x34, 0x22, 0x0e,
  0x09, 0xf7, 0xea, 0xdd, 0xbc, 0xbe, 0xb5, 0xba, 0xd1, 0xe7, 0xf7, 0x05,
  0x1e, 0x39, 0x48, 0x5d, 0x66, 0x5b, 0x4d, 0x37, 0x0e, 0x05, 0xf0, 0xcd,
  0xb9, 0xa4, 0x9f, 0xab, 0xc4, 0xcd, 0xeb, 0xfe, 0x0b, 0x1d, 0x32, 0x3e,
  0x51, 0x3f, 0x3f, 0x37, 0x24, 0x25, 0x10, 0xf7, 0xec, 0xdd, 0xcd, 0xd7,
  0xe2, 0xe0, 0xfd, 0x1e, 0xc3, 0xd8, 0xec, 0x2c, 0x1e, 0x25, 0x31, 0x17,
  0x00, 0xef, 0xf2, 0xdd, 0x08, 0x10, 0x23, 0x23, 0x18, 0x0c, 0x32, 0x3b,
  0x40, 0x46, 0x26, 0x16, 0xd9, 0xda, 0x0e, 0x2a, 0x4a, 0x3f, 0x30, 0x37,
  0x3b, 0x22, 0x07, 0xea, 0xd6, 0xd6, 0xeb, 0x01, 0x0b, 0xf2, 0xfd, 0xf3,
  0xe1, 0x07, 0xee, 0xe1, 0xe0, 0xbe, 0xaf, 0xad, 0xa4, 0xb7, 0xbd, 0xd5,
  0xe7, 0xe1, 0xcd, 0xbc, 0x9a, 0xac, 0xa0, 0xb7, 0xcb, 0xe1, 0xf6, 0x07,
  0xec, 0xdc, 0xe3, 0xd2, 0xe5, 0xd4, 0xed, 0xe5, 0x0c, 0x1b, 0x23, 0x52,
  0x27, 0x20, 0x24, 0x11, 0x1a, 0x24, 0x3b, 0x35, 0x4b, 0x5c, 0x50, 0x57,
  0x56, 0x44, 0x50, 0x3c, 0x35, 0x33, 0x64, 0x66, 0x5e, 0x58, 0x52, 0x27,
  0x21, 0x10, 0x13, 0x07, 0x07, 0x14, 0x20, 0x2f, 0x36, 0x2f, 0x11, 0x08,
  0xdf, 0xb0, 0xbb, 0xac, 0xc4, 0xe6, 0xdd, 0xe8, 0xf4, 0xd7, 0xb9, 0xa4,
  0x81, 0x88, 0x94, 0xac, 0x9b, 0xb4, 0xe0, 0xed, 0xf2, 0xe2, 0xe1, 0xbd,
  0xad, 0xbe, 0xa8, 0x99, 0xbe, 0xe8, 0x08, 0x15, 0x1e, 0x16, 0x19, 0x05,
  0xf8, 0xe8, 0xde, 0xe1, 0x00, 0x0c, 0x2f, 0x39, 0x1f, 0x33, 0x25, 0x20,
  0x38, 0x23, 0x11, 0x00, 0xe9, 0x06, 0x20, 0x35, 0x40, 0x37, 0x30, 0x45,
  0x38, 0x1a, 0x13, 0xd0, 0xd8, 0xd2, 0xfb, 0x1b, 0x36, 0x38, 0x3d, 0x18,
  0x09, 0xf7, 0xd4, 0xcd, 0xe6, 0xf6, 0x21, 0x25, 0x31, 0x07, 0x05, 0xe2,
  0xe0, 0xdd, 0xd6, 0xb8, 0xa6, 0xa0, 0x9f, 0x99, 0xb1, 0xc2, 0xc9, 0xd8,
  0xd6, 0xd1, 0xd0, 0xd5, 0xd4, 0xdc, 0xdc, 0xdc, 0xdc, 0xe4, 0xe6, 0xe9,
  0xeb, 0xe4, 0xd9, 0xd5, 0xda, 0xdc, 0xe5, 0xdc, 0xe5, 0xe9, 0xe2, 0xea,
  0xe2, 0xda, 0xcb, 0xc1, 0xc0, 0xc1, 0xcd, 0xd8, 0xe9, 0xea, 0xf5, 0x01,
  0xf5, 0x02, 0xf3, 0xee, 0xda, 0xd8, 0xd5, 0xe2, 0xeb, 0xed, 0xf6, 0xf3,
  0xfa, 0xf5, 0xee, 0xdf, 0xda, 0xd7, 0xe0, 0xf0, 0xf4, 0x07, 0x0e, 0x1c,
  0x13, 0x1c, 0x0c, 0x06, 0x07, 0x0a, 0x0f, 0x0d, 0x10, 0x09, 0x07, 0xff,
  0xf5, 0xed, 0xeb, 0xf0, 0xf6, 0xf9, 0xfd, 0xf9, 0x07, 0x08, 0x18, 0x1b,
  0x15, 0x12, 0x1b, 0x26, 0x44, 0x58, 0x54, 0x50, 0x46, 0x42, 0x38, 0x38,
  0x30, 0x25, 0x28, 0x25, 0x2f, 0x42, 0x3f, 0x4b, 0x3e, 0x42, 0x46, 0x45,
  0x54, 0x54, 0x54, 0x57, 0x56, 0x4a, 0x4c, 0x40, 0x47, 0x59, 0x6b, 0x71,
  0x7c, 0x77, 0x6a, 0x69, 0x64, 0x6a, 0x76, 0x7f, 0x72, 0x73, 0x6c, 0x6b,
  0x6c, 0x7a, 0x71, 0x6f, 0x68, 0x73, 0x6e, 0x69, 0x69, 0x5d, 0x60, 0x6d,
  0x6e, 0x75, 0x74, 0x6c, 0x69, 0x71, 0x6c, 0x72, 0x6f, 0x79, 0x64, 0x61,
  0x57, 0x53, 0x5f, 0x5d, 0x4f, 0x43, 0x33, 0x33, 0x2d, 0x39, 0x3f, 0x3e,
  0x3e, 0x48, 0x44, 0x43, 0x48, 0x44, 0x3b, 0x26, 0x0b, 0x06, 0xfa, 0x04,
  0x09, 0x14, 0x16, 0x19, 0x19, 0x0e, 0x00, 0x08, 0xee, 0x70, 0xff, 0xff,
  0x04, 0x00, 0x00, 0x00, 0x08, 0x00, 0x00, 0x00, 0x18, 0xda, 0xda, 0x7f,
  0x0d, 0x3b, 0x37, 0x00, 0x02, 0x71, 0xff, 0xff, 0x04, 0x00, 0x00, 0x00,
  0x08, 0x00, 0x00, 0x00, 0x05, 0xf0, 0xc3, 0x50, 0x80, 0x2b, 0x7f, 0x8c,
  0x16, 0x71, 0xff, 0xff, 0x04, 0x00, 0x00, 0x00, 0x00, 0x02, 0x00, 0x00,
  0x05, 0x28, 0xde, 0xe3, 0xd2, 0xb6, 0xa1, 0xd1, 0xec, 0x28, 0x19, 0xbf,
  0x17, 0xb3, 0x17, 0xeb, 0xe8, 0x0b, 0xbe, 0x2f, 0xa2, 0x08, 0x07, 0xcc,
  0x7f, 0x37, 0xbe, 0x4a, 0xf3, 0xd0, 0x13, 0xf7, 0xfa, 0x1b, 0xfa, 0x07,
  0x03, 0x03, 0xf4, 0x04, 0x0c, 0x19, 0x07, 0x24, 0x09, 0x0e, 0x1c, 0xf5,
  0x22, 0x05, 0xd8, 0x7f, 0xa9, 0x1a, 0xfe, 0xd2, 0xfd, 0x0f, 0x09, 0xfc,
  0xfc, 0x0d, 0x00, 0x0d, 0x20, 0x07, 0x4d, 0xdf, 0x09, 0x2f, 0x8a, 0xcc,
  0xb1, 0xbd, 0xbc, 0x92, 0xb7, 0xec, 0xee, 0x0f, 0x9e, 0x2a, 0xf4, 0x9f,
  0xfd, 0x90, 0xa9, 0x19, 0x13, 0xd8, 0x41, 0xb2, 0x16, 0x81, 0xd8, 0xcc,
  0xfc, 0x1e, 0xda, 0x7c, 0x01, 0xf4, 0xfd, 0xfb, 0x04, 0x00, 0x16, 0x81,
  0x10, 0x09, 0x02, 0xf5, 0x05, 0x26, 0xeb, 0xa7, 0xee, 0x08, 0xff, 0x09,
  0x01, 0xf2, 0x25, 0xd4, 0x2a, 0x05, 0x03, 0xfd, 0x5b, 0x29, 0xf4, 0xf5,
  0xf3, 0x52, 0x01, 0x0b, 0xb5, 0x19, 0x3d, 0xe0, 0x07, 0x7f, 0xe3, 0x18,
  0x4f, 0x1e, 0x32, 0xd1, 0xd6, 0x65, 0xed, 0xea, 0x09, 0xe4, 0x19, 0xed,
  0xed, 0x0e, 0x05, 0xe9, 0x5d, 0xe1, 0x01, 0x19, 0xf1, 0x60, 0x19, 0x32,
  0xe4, 0x29, 0x24, 0xe0, 0x49, 0x01, 0xc1, 0xff, 0xf4, 0x23, 0x27, 0xc0,
  0x6a, 0xb6, 0xe1, 0x0c, 0x06, 0x33, 0xee, 0x7f, 0x34, 0x1f, 0x36, 0x0c,
  0xcc, 0x04, 0x07, 0xb4, 0x98, 0xe1, 0xc4, 0x3c, 0xf6, 0x34, 0xe6, 0x56,
  0x0d, 0xbb, 0x03, 0x2d, 0x95, 0x06, 0x07, 0x45, 0x8d, 0xda, 0xe5, 0xf3,
  0x0d, 0xfa, 0x28, 0x24, 0x2c, 0x7f, 0xf3, 0xcb, 0xcf, 0xfe, 0x41, 0xf5,
  0x7f, 0xe8, 0x15, 0x07, 0x19, 0xd9, 0xc8, 0xe2, 0xe0, 0xc6, 0xd1, 0xee,
  0xff, 0xec, 0x03, 0x19, 0x4a, 0x21, 0x4b, 0xf8, 0x74, 0x0f, 0xee, 0x2f,
  0xcf, 0x02, 0x10, 0x06, 0xfb, 0x0f, 0x16, 0x76, 0xfc, 0x27, 0x29, 0x2d,
  0x2e, 0xfb, 0xfe, 0x7f, 0x01, 0x5c, 0x1f, 0x04, 0xfc, 0x1a, 0x2d, 0x0b,
  0x13, 0x2c, 0x17, 0x1a, 0xdf, 0xf6, 0x0f, 0xcd, 0x25, 0x04, 0xed, 0x19,
  0xfc, 0xfc, 0x17, 0xf3, 0xe5, 0xf9, 0x0a, 0xe9, 0xdf, 0xe0, 0x09, 0xb4,
  0x92, 0xc7, 0xfb, 0x81, 0x16, 0x03, 0xf4, 0xda, 0xed, 0x1c, 0x09, 0xf3,
  0xff, 0x27, 0x03, 0xd8, 0xe9, 0x3c, 0x02, 0xea, 0x0d, 0xea, 0xf9, 0x40,
  0x17, 0x1e, 0x17, 0x0d, 0x01, 0xef, 0x04, 0xfc, 0xfb, 0x22, 0x04, 0xf7,
  0xee, 0xf1, 0x10, 0x0a, 0xa5, 0x02, 0xfc, 0x9f, 0xed, 0xf1, 0x07, 0x1a,
  0x81, 0xe7, 0xf7, 0x87, 0x0c, 0xfa, 0x09, 0x00, 0x00, 0x07, 0x81, 0x05,
  0x0a, 0x1a, 0xfd, 0xff, 0xff, 0x07, 0x04, 0x00, 0x02, 0xfb, 0x05, 0xfe,
  0xfd, 0xff, 0x03, 0xfe, 0x02, 0x1c, 0x0d, 0xff, 0x02, 0x03, 0x01, 0xff,
  0xfc, 0x12, 0xfc, 0xc6, 0xf6, 0x1a, 0xe2, 0xed, 0x01, 0x04, 0xe5, 0x7f,
  0x0f, 0x18, 0x08, 0xf6, 0x0f, 0x0b, 0x1e, 0xe1, 0x0c, 0x08, 0xfd, 0xdc,
  0x02, 0xe1, 0x20, 0xf0, 0xee, 0x36, 0xff, 0x16, 0xf6, 0xc6, 0xc7, 0xd4,
  0xea, 0xee, 0x58, 0xef, 0x30, 0xc1, 0xfa, 0xd5, 0x0c, 0xc6, 0x7e, 0x20,
  0x57, 0xe5, 0x25, 0xa7, 0xab, 0x81, 0x57, 0xa7, 0x12, 0x05, 0x53, 0xb8,
  0x36, 0xde, 0x0f, 0x18, 0x03, 0xfe, 0x2b, 0xe7, 0x04, 0xf9, 0xf4, 0x03,
  0xfb, 0xd0, 0x2f, 0xeb, 0xfe, 0x14, 0xfb, 0x06, 0xfd, 0xf1, 0x0d, 0xe2,
  0x00, 0xe4, 0x0c, 0x09, 0x7f, 0x2d, 0xde, 0xf5, 0xeb, 0xdf, 0x08, 0xec,
  0xd3, 0xd2, 0x06, 0xfd, 0x01, 0x03, 0x13, 0x0e, 0xa1, 0xe3, 0xfb, 0xf0,
  0x0a, 0x7f, 0x09, 0x28, 0x08, 0xec, 0x02, 0x03, 0x00, 0xfd, 0x0d, 0x0b,
  0xfe, 0xdf, 0xf4, 0xe0, 0x00, 0x5f, 0x07, 0x05, 0x22, 0x73, 0xff, 0xff,
  0x04, 0x00, 0x00, 0x00, 0x10, 0x00, 0x00, 0x00, 0xc0, 0x24, 0x80, 0x06,
  0xfe, 0xb9, 0xc9, 0x8d, 0x97, 0x07, 0x4f, 0x04, 0xc2, 0x10, 0x7f, 0x2e,
  0x3e, 0x73, 0xff, 0xff, 0x04, 0x00, 0x00, 0x00, 0x10, 0x00, 0x00, 0x00,
  0x38, 0x3e, 0x32, 0x58, 0x28, 0x0c, 0x5b, 0x43, 0x7f, 0x1b, 0x22, 0x57,
  0x3c, 0x1f, 0x31, 0x5b, 0x5a, 0x73, 0xff, 0xff, 0x04, 0x00, 0x00, 0x00,
  0x10, 0x00, 0x00, 0x00, 0x7d, 0x0e, 0x79, 0x36, 0x5c, 0x7d, 0x7d, 0x7b,
  0x7c, 0x5b, 0xde, 0x44, 0x7c, 0x41, 0x80, 0xe7, 0x76, 0x73, 0xff, 0xff,
  0x04, 0x00, 0x00, 0x00, 0x00, 0x04, 0x00, 0x00, 0x2b, 0x1e, 0x0f, 0xcc,
  0x9b, 0xab, 0xd3, 0xbe, 0xa5, 0x60, 0xd6, 0x01, 0x1d, 0x41, 0x0c, 0xbb,
  0x35, 0x3e, 0xe5, 0xf5, 0xb0, 0xa1, 0xfa, 0xe2, 0xdc, 0x46, 0x29, 0x4b,
  0xfb, 0x51, 0x1b, 0x25, 0x07, 0xe2, 0x20, 0xb6, 0x08, 0xf3, 0xee, 0xb4,
  0xd0, 0x0a, 0x0d, 0x7f, 0x06, 0x02, 0x0c, 0x4a, 0xd1, 0x0b, 0x1a, 0xd1,
  0x33, 0xf9, 0xb9, 0xf4, 0xec, 0x11, 0x76, 0x68, 0x9c, 0x1e, 0x21, 0x49,
  0xb6, 0xe1, 0xe6, 0xe6, 0x0c, 0xf0, 0xd1, 0xbf, 0xe9, 0x12, 0x01, 0x1b,
  0xdc, 0x21, 0xfc, 0x11, 0xec, 0xdd, 0xf0, 0xfe, 0x2b, 0xdd, 0xbc, 0xd7,
  0xb1, 0x18, 0x17, 0x1b, 0xdb, 0x17, 0x1b, 0x11, 0x08, 0x15, 0xeb, 0x01,
  0x30, 0xfe, 0xd5, 0xe5, 0xd6, 0xec, 0x18, 0x0d, 0xd2, 0xf8, 0xe3, 0x2c,
  0xee, 0x25, 0xff, 0x21, 0xd6, 0xba, 0xc9, 0xe7, 0x81, 0xbb, 0x4d, 0x09,
  0xcf, 0xf3, 0x09, 0x46, 0xc5, 0xef, 0xfa, 0xdd, 0x39, 0x00, 0x17, 0x13,
  0xa9, 0x43, 0xb6, 0xf0, 0xa9, 0xf2, 0x13, 0x2d, 0x32, 0xf0, 0xbb, 0xdc,
  0x6b, 0x30, 0x1f, 0x37, 0xda, 0x69, 0xbb, 0x0c, 0x22, 0x37, 0xfd, 0x15,
  0x28, 0x30, 0xeb, 0xe1, 0xd0, 0xf8, 0x0a, 0x2d, 0xfb, 0xc9, 0x1b, 0x0d,
  0x1b, 0x04, 0xcb, 0x05, 0xf2, 0x61, 0x9c, 0x37, 0x25, 0x1c, 0x36, 0x4d,
  0x7f, 0xff, 0x30, 0x2f, 0x3d, 0xf5, 0x35, 0x2d, 0x0a, 0xf4, 0xf8, 0xdf,
  0xd2, 0xce, 0x04, 0x0f, 0xf6, 0x1c, 0x0c, 0x05, 0xf1, 0x08, 0xbc, 0xd2,
  0xd4, 0xf8, 0xf6, 0xff, 0xcf, 0xac, 0xd7, 0xe8, 0xf6, 0x13, 0xff, 0x22,
  0xe1, 0x33, 0xbb, 0xc7, 0xd4, 0x0d, 0xee, 0xfd, 0x03, 0x81, 0xe8, 0xfb,
  0xf5, 0xf5, 0x1c, 0x1b, 0x10, 0x02, 0xc0, 0x07, 0x06, 0xf0, 0xd5, 0x0e,
  0x14, 0xbc, 0xf8, 0x0f, 0xb5, 0x0f, 0x0d, 0x38, 0xd1, 0x20, 0x08, 0xc2,
  0x18, 0x2a, 0x12, 0x4b, 0x19, 0x14, 0x1a, 0xee, 0xcd, 0xd3, 0xd4, 0xfa,
  0x1b, 0x35, 0x30, 0x05, 0x81, 0x10, 0x1f, 0x28, 0x2f, 0xec, 0xae, 0xe6,
  0x31, 0x1f, 0xf3, 0x20, 0xdb, 0x12, 0xe4, 0x2d, 0xe6, 0xcb, 0xee, 0x03,
  0x2d, 0x22, 0xe3, 0xed, 0xd9, 0xc9, 0x21, 0x05, 0x17, 0xfa, 0xfc, 0xef,
  0x0a, 0x1e, 0xdb, 0x40, 0xeb, 0x24, 0x01, 0xec, 0xc2, 0x12, 0x10, 0xdd,
  0xf1, 0xda, 0xd2, 0xe0, 0x2e, 0xe7, 0x39, 0x04, 0xeb, 0xde, 0xe6, 0xc9,
  0xbe, 0x06, 0xca, 0xfd, 0x21, 0x16, 0xa5, 0xc9, 0x20, 0x14, 0x34, 0x21,
  0xc2, 0x0f, 0xdb, 0x81, 0xdd, 0x08, 0xe4, 0xeb, 0xdb, 0xce, 0xb9, 0xcd,
  0x18, 0xc2, 0xe2, 0x3c, 0xb2, 0x1a, 0x1e, 0xb3, 0xc9, 0xe2, 0xc0, 0xef,
  0x01, 0x2b, 0xd1, 0x82, 0xcb, 0xec, 0x1d, 0xd6, 0xbc, 0xf6, 0x1d, 0xde,
  0xee, 0x23, 0x33, 0x0b, 0xfd, 0xcb, 0xfd, 0xcc, 0xd2, 0xda, 0xd2, 0xc0,
  0x07, 0x04, 0xca, 0x1d, 0xd6, 0x1d, 0xc0, 0xfe, 0xf6, 0x2a, 0x37, 0x07,
  0xfb, 0xdf, 0xf3, 0xae, 0x05, 0xf5, 0xec, 0xea, 0xf8, 0xfa, 0x8b, 0x17,
  0xc7, 0x15, 0x17, 0x2a, 0xda, 0x01, 0x04, 0xff, 0xf8, 0x04, 0x00, 0xe2,
  0xe2, 0x2a, 0x95, 0x03, 0xea, 0xdf, 0x45, 0x2c, 0xd4, 0xc7, 0xf2, 0x04,
  0x12, 0xed, 0x96, 0xf6, 0x81, 0xd4, 0xf4, 0xfc, 0xa3, 0xf5, 0x22, 0x49,
  0x0f, 0xec, 0x20, 0xb8, 0x65, 0xc0, 0xc1, 0xe0, 0xb6, 0xc4, 0x0c, 0x0a,
  0xde, 0x1c, 0x2c, 0x20, 0xa7, 0x86, 0xa9, 0xa7, 0x63, 0xeb, 0x08, 0xaf,
  0xa5, 0xfe, 0x54, 0x28, 0x81, 0xfc, 0x08, 0x12, 0xed, 0xde, 0xfc, 0xeb,
  0xee, 0x13, 0xf0, 0xba, 0xa2, 0xbd, 0xd1, 0xf9, 0x12, 0x44, 0x4d, 0x1e,
  0x10, 0xdf, 0xba, 0xc3, 0xfd, 0xe5, 0x0a, 0xf7, 0xbb, 0x0d, 0x25, 0x1a,
  0xad, 0x23, 0xbe, 0xc3, 0xe9, 0x32, 0x06, 0x0e, 0x15, 0x0d, 0xe6, 0xf9,
  0x12, 0x9a, 0xe7, 0x08, 0xd4, 0xfc, 0x25, 0xe9, 0xdb, 0x25, 0x0b, 0x06,
  0xfc, 0x18, 0xec, 0xdd, 0xf3, 0xcd, 0xdf, 0xdd, 0xfa, 0xd1, 0x2b, 0xe3,
  0xf0, 0x08, 0xe4, 0x05, 0x03, 0xec, 0xd8, 0xd3, 0xe8, 0x96, 0xed, 0xcf,
  0xf7, 0xde, 0x0c, 0xf4, 0xe0, 0x05, 0xc1, 0x03, 0x0a, 0xd9, 0xeb, 0xc4,
  0x81, 0xd0, 0xe6, 0xc3, 0xe8, 0x0f, 0x0c, 0xe7, 0xdf, 0x35, 0xd0, 0x3f,
  0x0c, 0xe0, 0xf7, 0xce, 0xc5, 0x8c, 0xd4, 0x38, 0xcb, 0x42, 0x7f, 0x13,
  0xf9, 0xe8, 0xac, 0x30, 0x10, 0x37, 0xef, 0xe1, 0xc6, 0xc8, 0x2f, 0x31,
  0xe0, 0xfb, 0x49, 0x27, 0xfc, 0xdb, 0x24, 0x12, 0x05, 0xd0, 0x16, 0xd4,
  0xba, 0x08, 0x2d, 0x48, 0xa3, 0x1f, 0x17, 0x66, 0xd1, 0x2a, 0x09, 0xeb,
  0xef, 0xfc, 0x02, 0xd6, 0x26, 0xb7, 0xdc, 0x30, 0x0e, 0x12, 0x26, 0x29,
  0x15, 0xff, 0xec, 0xdb, 0x19, 0xfa, 0xfa, 0xd2, 0xb3, 0xf5, 0x1e, 0x0f,
  0xc3, 0x05, 0xed, 0x1a, 0x28, 0xfb, 0xe6, 0xb2, 0x11, 0xf9, 0x04, 0xda,
  0xcd, 0x0e, 0xf7, 0xf9, 0xdb, 0xf1, 0xf7, 0xef, 0xf6, 0xe6, 0xbd, 0xac,
  0x04, 0xcb, 0xe7, 0xd1, 0x01, 0x32, 0xf2, 0x07, 0xb3, 0x29, 0xf3, 0xba,
  0x12, 0xe3, 0x1a, 0xc3, 0xf6, 0xc5, 0xe7, 0xee, 0xfa, 0x7f, 0xca, 0x0a,
  0xa2, 0xf0, 0xd8, 0xef, 0xe9, 0xce, 0xed, 0x0b, 0x3a, 0xae, 0x10, 0x95,
  0xd0, 0xff, 0xfd, 0xf1, 0xe3, 0xb5, 0xd5, 0xf4, 0x0d, 0xef, 0xc8, 0x0f,
  0x04, 0x92, 0xee, 0xc5, 0xff, 0x0a, 0xe1, 0x9b, 0x00, 0x8c, 0x17, 0xe7,
  0xdd, 0x01, 0xf7, 0x05, 0xe5, 0x81, 0xe9, 0xf4, 0xea, 0x38, 0x11, 0x85,
  0x05, 0xd5, 0x08, 0xf5, 0xe3, 0xed, 0xe1, 0x0b, 0xe8, 0xc3, 0xae, 0xbe,
  0x12, 0x21, 0xdc, 0x87, 0xf2, 0xf6, 0x0f, 0x03, 0xe7, 0x30, 0x3d, 0xde,
  0x25, 0x14, 0x13, 0xfb, 0xeb, 0x42, 0x44, 0x2a, 0x09, 0x00, 0x25, 0x16,
  0xcf, 0x08, 0xfe, 0x0d, 0xb8, 0x22, 0x10, 0xb2, 0xc1, 0x1f, 0x66, 0x02,
  0x44, 0xc2, 0xeb, 0xd4, 0x21, 0x0b, 0x07, 0xa6, 0x97, 0x2f, 0xf0, 0xee,
  0xb5, 0xd4, 0xd1, 0xb2, 0xf8, 0xb4, 0x2b, 0xf8, 0xff, 0xfc, 0xc5, 0xeb,
  0xf6, 0x3a, 0x1f, 0xba, 0x81, 0xf9, 0x15, 0xe1, 0x1b, 0x03, 0xbe, 0xdf,
  0xce, 0xb7, 0x32, 0xe7, 0x02, 0xea, 0xf1, 0x8e, 0xfe, 0xdd, 0x15, 0x11,
  0xd0, 0x2b, 0xcd, 0x09, 0xc6, 0xc2, 0xc3, 0xf8, 0x21, 0xd2, 0x3e, 0x81,
  0x9f, 0xcc, 0x88, 0x26, 0xea, 0x65, 0xde, 0x01, 0xba, 0xd0, 0x1c, 0xbd,
  0xe6, 0x9a, 0x9d, 0xa7, 0xf6, 0x18, 0xc3, 0x38, 0xf1, 0x02, 0xf7, 0xd9,
  0xe7, 0xd6, 0x30, 0x09, 0xd1, 0x83, 0xe4, 0x24, 0xe5, 0x10, 0xc6, 0x30,
  0xe1, 0x30, 0x02, 0xf5, 0x26, 0x4a, 0xfb, 0x1e, 0x03, 0xdc, 0x3d, 0x1f,
  0x1b, 0xd8, 0x28, 0xdc, 0xf4, 0x95, 0x0d, 0x40, 0x3b, 0x7f, 0xe1, 0x1d,
  0x23, 0x06, 0xeb, 0xf6, 0xca, 0x27, 0xde, 0xd8, 0xc6, 0xf0, 0xf7, 0xeb,
  0xdf, 0xe9, 0xeb, 0x42, 0x22, 0xc5, 0xee, 0x0b, 0xbc, 0xd5, 0xeb, 0x01,
  0xf8, 0x1b, 0xf7, 0x09, 0x4e, 0x06, 0x02, 0x32, 0xe6, 0x00, 0xfa, 0x09,
  0xe2, 0x27, 0xc9, 0xe4, 0x30, 0xab, 0xea, 0xff, 0x2e, 0x2a, 0xe0, 0x2e,
  0xb4, 0xef, 0x5e, 0x51, 0xf9, 0x39, 0x3c, 0xfe, 0x4c, 0x88, 0xb3, 0x2c,
  0x23, 0xaa, 0xce, 0x09, 0xb4, 0xa0, 0x2f, 0xda, 0x13, 0x33, 0x01, 0xa7,
  0x48, 0xb9, 0xfc, 0xeb, 0xfb, 0xc8, 0xe1, 0xf1, 0xad, 0xbe, 0x11, 0xef,
  0xa1, 0x05, 0x50, 0xf7, 0x00, 0x8f, 0xaf, 0x1a, 0xb8, 0xbf, 0xa7, 0x0f,
  0xa3, 0xe4, 0xb4, 0x81, 0x28, 0x51, 0x62, 0x1d, 0x13, 0xd6, 0xcf, 0x1e,
  0x82, 0x77, 0xff, 0xff, 0x04, 0x00, 0x00, 0x00, 0x10, 0x00, 0x00, 0x00,
  0xb0, 0xd2, 0xe0, 0xf4, 0x84, 0xdf, 0xf3, 0xcc, 0x7f, 0x82, 0x80, 0xec,
  0x99, 0xd7, 0xab, 0xa8, 0x9e, 0x77, 0xff, 0xff, 0x04, 0x00, 0x00, 0x00,
  0x10, 0x00, 0x00, 0x00, 0xd0, 0xc3, 0xa7, 0xd4, 0xc5, 0x12, 0xc2, 0xc1,
  0xb3, 0xce, 0x35, 0x14, 0x7f, 0xec, 0x20, 0x62, 0xba, 0x77, 0xff, 0xff,
  0x04, 0x00, 0x00, 0x00, 0x10, 0x00, 0x00, 0x00, 0x8f, 0xf8, 0xda, 0x80,
  0x67, 0x1d, 0x04, 0x2e, 0xf7, 0x77, 0xfb, 0x0c, 0x6d, 0xc7, 0x70, 0x7f,
  0xd6, 0x77, 0xff, 0xff, 0x04, 0x00, 0x00, 0x00, 0x00, 0x04, 0x00, 0x00,
  0xe0, 0xea, 0xef, 0x15, 0xd9, 0xed, 0x02, 0x06, 0x11, 0x10, 0xd9, 0xf8,
  0xbc, 0x46, 0x81, 0x11, 0xa3, 0x23, 0xcc, 0xd5, 0x03, 0x47, 0xe7, 0xf0,
  0x35, 0x04, 0xfb, 0xd9, 0xae, 0xe2, 0xdc, 0x1a, 0xc2, 0xea, 0xf6, 0x0a,
  0xe3, 0xd9, 0x0a, 0xe5, 0x09, 0xcc, 0xd4, 0xea, 0xc2, 0x2c, 0xca, 0xe4,
  0xb4, 0xce, 0x0f, 0xf1, 0x03, 0x4e, 0x09, 0x28, 0x02, 0xd3, 0x0d, 0xe4,
  0xd2, 0x0c, 0x06, 0xdb, 0xcb, 0xf2, 0xe5, 0xe0, 0x81, 0x13, 0x10, 0x0f,
  0x30, 0xa1, 0xb7, 0x3c, 0xec, 0xda, 0xc0, 0xf0, 0xf4, 0xcd, 0xf0, 0xd6,
  0xe4, 0xf2, 0x12, 0xe1, 0x16, 0xde, 0xd4, 0x2f, 0xe5, 0xab, 0x18, 0x19,
  0xcd, 0xee, 0xcf, 0xeb, 0xb9, 0x0e, 0x02, 0x0b, 0x04, 0xf4, 0xf0, 0x32,
  0x3a, 0xc5, 0x09, 0xe0, 0xe2, 0x05, 0x09, 0xe7, 0x07, 0xfe, 0x01, 0xeb,
  0x1a, 0xe2, 0x04, 0x35, 0x29, 0xe8, 0xf8, 0x0d, 0x3b, 0xfe, 0x15, 0xfb,
  0xed, 0x17, 0xe6, 0x40, 0xf8, 0x03, 0x41, 0x2b, 0xe8, 0x00, 0xdf, 0x2f,
  0xeb, 0xec, 0xd5, 0x15, 0xc9, 0xf9, 0xeb, 0xba, 0x1b, 0xaf, 0x31, 0x26,
  0x13, 0xc5, 0xef, 0x18, 0xbf, 0x11, 0x12, 0x35, 0xb7, 0xfb, 0xd6, 0xff,
  0xf0, 0xc4, 0xd1, 0x33, 0xe3, 0x8e, 0x01, 0x18, 0x03, 0x73, 0xe0, 0xbf,
  0x0b, 0xc0, 0x3e, 0x5a, 0x17, 0xe7, 0x81, 0x17, 0xe5, 0xcd, 0xba, 0x58,
  0x06, 0x2f, 0x20, 0xe4, 0xb0, 0xf7, 0x3d, 0xf2, 0xee, 0xce, 0x17, 0xe3,
  0x0d, 0x0a, 0xec, 0x00, 0xdd, 0xcb, 0x08, 0x11, 0xe7, 0xdc, 0x05, 0x3e,
  0x09, 0xc2, 0x06, 0xfb, 0x13, 0xeb, 0x00, 0xed, 0x14, 0xf2, 0x05, 0xbd,
  0x81, 0xd8, 0x33, 0x05, 0xbc, 0xb6, 0x1c, 0xf8, 0xfd, 0x06, 0xef, 0xfd,
  0xec, 0x06, 0xff, 0x01, 0xf6, 0xff, 0xf9, 0xf9, 0x1f, 0xca, 0x28, 0x04,
  0xfa, 0xf6, 0x09, 0x1a, 0xd5, 0x00, 0x14, 0x37, 0xe3, 0xf8, 0x04, 0xf8,
  0xfd, 0x8b, 0xfe, 0xeb, 0xdc, 0x0f, 0xf0, 0xee, 0xf4, 0xf8, 0x01, 0x44,
  0xc2, 0xe9, 0x09, 0x26, 0xd4, 0xad, 0xfb, 0xe0, 0xe3, 0xfc, 0xcc, 0xf1,
  0xe5, 0x1e, 0xc2, 0x08, 0xa8, 0x02, 0x0d, 0x16, 0xdd, 0xc9, 0x12, 0xde,
  0xe1, 0xef, 0xe2, 0x0a, 0xfb, 0x0d, 0x20, 0x02, 0xee, 0xf9, 0x01, 0x02,
  0x12, 0x81, 0xfd, 0xfb, 0xf2, 0x0a, 0xe7, 0x11, 0xe7, 0x00, 0xdd, 0x38,
  0x01, 0xe5, 0xe3, 0x11, 0xfc, 0x82, 0xeb, 0x00, 0x42, 0xef, 0x03, 0x1d,
  0xe1, 0xd4, 0xd4, 0x29, 0xe1, 0xff, 0x05, 0x14, 0xe8, 0x92, 0xeb, 0xd8,
  0x1a, 0xcc, 0xf5, 0x10, 0xbc, 0xfd, 0xee, 0x47, 0x81, 0xdc, 0xd8, 0x29,
  0x36, 0x8a, 0xc9, 0xcc, 0xc9, 0xdc, 0xe3, 0x0d, 0x03, 0xde, 0x13, 0x14,
  0xdd, 0x23, 0xf1, 0x11, 0xff, 0xf2, 0xe5, 0xc5, 0x1b, 0x02, 0x07, 0x0b,
  0xb0, 0xc8, 0xf4, 0x32, 0xdd, 0x3d, 0x1c, 0x81, 0x2a, 0x25, 0xd7, 0x14,
  0xf9, 0xab, 0x2e, 0x2d, 0xfa, 0x8f, 0xae, 0x21, 0x0e, 0xcb, 0xc2, 0xe7,
  0x47, 0x0d, 0xb7, 0xe5, 0x20, 0xe7, 0xe1, 0x0a, 0xb6, 0xc9, 0xd3, 0x18,
  0x1d, 0xfe, 0xf1, 0xc3, 0x0c, 0x21, 0xc5, 0x0b, 0x18, 0xde, 0xf2, 0x1d,
  0xe4, 0xb2, 0xb2, 0x45, 0xb9, 0x48, 0x0f, 0x03, 0x21, 0xd5, 0xe1, 0x19,
  0xeb, 0xfc, 0x0d, 0x1a, 0x16, 0xf0, 0xd9, 0x21, 0xa0, 0x13, 0x19, 0xc2,
  0x91, 0x82, 0x2d, 0x08, 0xed, 0xc7, 0x8b, 0x12, 0xf2, 0x1d, 0x33, 0x2e,
  0xc9, 0xf5, 0xf9, 0x24, 0xe3, 0x81, 0x1d, 0xe8, 0xfc, 0xdf, 0xe6, 0xff,
  0x06, 0x18, 0x15, 0x21, 0xc6, 0xf7, 0xf0, 0x1b, 0xcf, 0xcb, 0xff, 0xeb,
  0x00, 0xdd, 0xfe, 0xfd, 0xd0, 0x13, 0xe6, 0xe8, 0xd0, 0xde, 0x13, 0x39,
  0xf1, 0xcd, 0x42, 0xdf, 0x11, 0xee, 0xf4, 0xf8, 0xf7, 0x30, 0xf2, 0x49,
  0x0b, 0x1c, 0x40, 0x2b, 0x23, 0x1c, 0xff, 0x19, 0xe1, 0xf9, 0xae, 0xd7,
  0xea, 0x2d, 0xf8, 0x3c, 0xf5, 0x1f, 0x47, 0x4c, 0xea, 0xf7, 0x10, 0x08,
  0x90, 0x0b, 0xcf, 0xad, 0xf2, 0x06, 0xf0, 0x10, 0x09, 0xc0, 0x4f, 0x2c,
  0xf7, 0xe4, 0x03, 0xfb, 0xdf, 0xc5, 0xb2, 0x81, 0x44, 0x1f, 0xe6, 0xe1,
  0xe8, 0xaa, 0x43, 0x20, 0xe9, 0xc1, 0xf5, 0x06, 0xae, 0x1f, 0xc3, 0xe0,
  0x06, 0x0d, 0xfd, 0xd9, 0xfc, 0x89, 0x0d, 0x4a, 0x11, 0x1c, 0x49, 0x15,
  0xd4, 0x0c, 0xd5, 0xf1, 0x02, 0x27, 0xa0, 0xcd, 0xfa, 0xf1, 0xf4, 0x00,
  0xfa, 0x09, 0x22, 0x0f, 0x12, 0x38, 0xd7, 0xfd, 0xad, 0xd3, 0x08, 0xe5,
  0xe6, 0xf6, 0x97, 0x21, 0xf1, 0xf0, 0x0b, 0xe6, 0xff, 0xec, 0xe4, 0xf7,
  0xfe, 0x88, 0xbb, 0x2a, 0xfc, 0x29, 0x81, 0x00, 0x99, 0xe8, 0x3f, 0xee,
  0x04, 0xca, 0xc8, 0x21, 0xf7, 0xfc, 0x05, 0xa2, 0x04, 0x02, 0xf4, 0xe0,
  0x5d, 0x49, 0x19, 0x5a, 0xe8, 0xfb, 0xe6, 0xf5, 0xc1, 0x2d, 0xea, 0xa9,
  0xe7, 0xff, 0x04, 0xf6, 0x3e, 0x29, 0xba, 0x60, 0xec, 0xec, 0x26, 0xe2,
  0xd2, 0x0d, 0xfc, 0xc3, 0xf6, 0x0c, 0x16, 0xda, 0x4a, 0x1d, 0xc0, 0x74,
  0xfb, 0xe9, 0x1e, 0xd2, 0xf1, 0x03, 0xd5, 0xd5, 0xe7, 0x22, 0x1b, 0xc7,
  0x40, 0x00, 0x81, 0x70, 0xef, 0x03, 0xd8, 0xd3, 0xe4, 0x0f, 0x0f, 0xfd,
  0xfd, 0xeb, 0x33, 0x13, 0x31, 0xfb, 0x31, 0xe8, 0xd2, 0x12, 0xe4, 0x97,
  0xd4, 0x0a, 0x1b, 0x0a, 0x0e, 0x10, 0x2f, 0x09, 0x4d, 0xf4, 0x02, 0xe7,
  0xca, 0x23, 0xfc, 0x94, 0xca, 0x16, 0x34, 0x1b, 0xed, 0xef, 0x21, 0x03,
  0xff, 0x2c, 0x35, 0xdd, 0x12, 0xc8, 0x0b, 0xdb, 0xe1, 0xd3, 0x01, 0x11,
  0xbe, 0x0a, 0x3c, 0xf3, 0x0d, 0x01, 0x1c, 0xeb, 0x22, 0x18, 0xfb, 0x81,
  0xef, 0x39, 0x26, 0x04, 0xfd, 0x12, 0x37, 0x30, 0xa7, 0xf1, 0x79, 0xd9,
  0xb4, 0xc2, 0xdb, 0xef, 0x3f, 0x60, 0xf2, 0x4a, 0xde, 0xd8, 0xf9, 0xf1,
  0x3b, 0xb5, 0xf7, 0x42, 0xcd, 0xcf, 0x16, 0x0c, 0x4c, 0x27, 0x18, 0xbc,
  0xcc, 0x81, 0x3a, 0x34, 0x0b, 0xe7, 0x0c, 0xe9, 0xdf, 0xe2, 0x11, 0xeb,
  0x0d, 0x26, 0xd5, 0x0a, 0xf9, 0x9a, 0xec, 0x36, 0x12, 0xc5, 0x29, 0x2c,
  0xe7, 0xd1, 0x1c, 0xf9, 0xed, 0xd4, 0x09, 0xcf, 0x03, 0xe8, 0x36, 0xe5,
  0x29, 0x30, 0x08, 0x2e, 0x15, 0x05, 0xf0, 0x81, 0xfb, 0xe7, 0x2c, 0xaa,
  0xf7, 0xda, 0x1f, 0x00, 0x0a, 0x16, 0x1e, 0x29, 0xc7, 0x2a, 0xde, 0x82,
  0xdc, 0xf8, 0x0f, 0xd1, 0xcf, 0xf2, 0x1d, 0xf2, 0x26, 0x24, 0xff, 0x0d,
  0xda, 0xf8, 0xf5, 0xa4, 0xdf, 0xcd, 0xaa, 0x06, 0xf8, 0x08, 0x30, 0xe9,
  0x20, 0x1a, 0x0d, 0x2e, 0xf4, 0x13, 0x2a, 0xb1, 0xcc, 0x30, 0xe3, 0xdd,
  0xac, 0x1d, 0xe2, 0xf5, 0x1e, 0xf4, 0xc1, 0x26, 0x0f, 0xe4, 0x11, 0x2c,
  0x03, 0x3d, 0xf8, 0xf5, 0x0c, 0xf5, 0xd3, 0xf2, 0x17, 0xe4, 0xb9, 0x33,
  0xf6, 0x81, 0x11, 0x0f, 0xd9, 0xf2, 0x31, 0x20, 0xf0, 0x19, 0xe1, 0xe1,
  0xf5, 0x17, 0xd7, 0x4c, 0xe0, 0xcf, 0x0a, 0x20, 0xe2, 0x00, 0x1f, 0x0b,
  0x01, 0x06, 0xc0, 0xf6, 0x29, 0x00, 0xf4, 0x36, 0xfb, 0x2a, 0x13, 0x01,
  0x25, 0x35, 0xca, 0x1c, 0x11, 0x2f, 0xea, 0xce, 0xd9, 0xe2, 0x22, 0xdf,
  0x1d, 0xd6, 0x07, 0x3a, 0x40, 0x46, 0x2d, 0x1f, 0xe1, 0x67, 0x29, 0x26,
  0x3b, 0xec, 0x2c, 0x19, 0x02, 0x90, 0x0c, 0x0e, 0x40, 0xff, 0x95, 0x58,
  0xde, 0x29, 0xde, 0xb8, 0xfb, 0xe4, 0x13, 0xd5, 0xf7, 0x0b, 0x07, 0xf6,
  0xc1, 0xf4, 0x81, 0x42, 0x0f, 0xfa, 0xc5, 0x05, 0xf6, 0xc6, 0x32, 0xc7,
  0xee, 0xdf, 0xcd, 0xd2, 0xe2, 0x7b, 0xff, 0xff, 0x04, 0x00, 0x00, 0x00,
  0x10, 0x00, 0x00, 0x00, 0xd0, 0xd5, 0x05, 0x5e, 0x3e, 0x25, 0x3c, 0xfb,
  0xb3, 0x85, 0xa6, 0xe8, 0x07, 0x7f, 0x31, 0x8a, 0xfe, 0x7b, 0xff, 0xff,
  0x04, 0x00, 0x00, 0x00, 0x10, 0x00, 0x00, 0x00, 0x4a, 0x5e, 0x28, 0x47,
  0x2b, 0x7f, 0x05, 0x56, 0xfc, 0x6c, 0xec, 0xe3, 0xf3, 0xe9, 0x07, 0x22,
  0x1a, 0x7c, 0xff, 0xff, 0x04, 0x00, 0x00, 0x00, 0x10, 0x00, 0x00, 0x00,
  0x2d, 0xff, 0xaf, 0x80, 0xd1, 0xd7, 0x10, 0xc1, 0xce, 0x6a, 0x0d, 0xd9,
  0xec, 0xdb, 0xd4, 0xc2, 0x36, 0x7c, 0xff, 0xff, 0x04, 0x00, 0x00, 0x00,
  0x40, 0x6a, 0x00, 0x00, 0x05, 0x08, 0xfe, 0xff, 0x05, 0x09, 0x05, 0xfd,
  0x04, 0xff, 0x0a, 0xfc, 0xf3, 0x00, 0xfd, 0x05, 0xf9, 0xfd, 0x02, 0xfb,
  0xfb, 0xfa, 0x07, 0x03, 0xf8, 0x01, 0x08, 0x07, 0x03, 0xfc, 0xfc, 0x06,
  0x05, 0x01, 0xff, 0xf6, 0x03, 0xfc, 0x05, 0xfb, 0xfb, 0xfe, 0x02, 0xfe,
  0xfe, 0xfb, 0xfe, 0x06, 0xff, 0x00, 0x02, 0x06, 0xfc, 0x03, 0xf9, 0x00,
  0x04, 0x01, 0x06, 0x04, 0x08, 0xf9, 0xf1, 0x06, 0x00, 0x01, 0xfb, 0x00,
  0xfd, 0x04, 0x03, 0xfa, 0xfa, 0x06, 0x00, 0x01, 0xfe, 0xf5, 0xf5, 0xfd,
  0x0b, 0xf7, 0x01, 0xfc, 0xfd, 0x0a, 0xfc, 0x05, 0x02, 0x01, 0x06, 0xfc,
  0x03, 0xf8, 0x00, 0x03, 0x05, 0x03, 0xfc, 0x06, 0x00, 0x04, 0x01, 0xfe,
  0x00, 0x03, 0xff, 0xff, 0xf9, 0xff, 0x00, 0x03, 0x03, 0x06, 0x02, 0xfe,
  0x04, 0xf8, 0x03, 0xfd, 0xf6, 0xff, 0x01, 0x07, 0xfa, 0x06, 0xfc, 0xfc,
  0xfd, 0xfc, 0x06, 0x00, 0x03, 0xfc, 0x01, 0x03, 0x06, 0x01, 0x02, 0x07,
  0xfc, 0xfd, 0xfc, 0xff, 0x00, 0x0e, 0x03, 0xfd, 0xfb, 0xfe, 0xff, 0xfd,
  0x02, 0x00, 0x02, 0xfe, 0xf9, 0xff, 0xff, 0x04, 0xf8, 0xfd, 0x03, 0xf7,
  0x01, 0x07, 0xfb, 0x02, 0xfb, 0x02, 0x07, 0xfd, 0xfe, 0x07, 0xf5, 0xfd,
  0x00, 0x09, 0x05, 0xfb, 0xff, 0xfe, 0x00, 0xfa, 0xfa, 0x06, 0x07, 0x02,
  0xff, 0xfe, 0xfd, 0xfe, 0x05, 0xfc, 0x05, 0xff, 0xff, 0x02, 0xf2, 0xfc,
  0xfb, 0x02, 0x01, 0x01, 0xff, 0xff, 0x04, 0x02, 0x04, 0x00, 0x01, 0xfe,
  0x06, 0xfe, 0xfe, 0x04, 0x03, 0x06, 0x01, 0x01, 0xfc, 0xfb, 0xf9, 0xfb,
  0xfe, 0x04, 0xf9, 0x02, 0x02, 0xf6, 0xfe, 0x06, 0x02, 0x03, 0xfb, 0x02,
  0x07, 0x04, 0x05, 0xfd, 0x04, 0xfb, 0x04, 0xff, 0x00, 0x01, 0x06, 0xff,
  0xfd, 0xfa, 0xfc, 0x02, 0xfd, 0x05, 0xfb, 0x03, 0xfc, 0xf8, 0x00, 0xfe,
  0xff, 0x03, 0xff, 0x00, 0x03, 0x02, 0x00, 0xff, 0xfd, 0x02, 0xfa, 0x03,
  0xfc, 0xfa, 0x05, 0x00, 0xfd, 0x02, 0xfb, 0x01, 0xff, 0x04, 0xfb, 0xfa,
  0x02, 0xfe, 0x00, 0x03, 0x06, 0xf5, 0xfd, 0xf8, 0xf8, 0x08, 0xfc, 0x00,
  0x04, 0xfd, 0x09, 0xfb, 0xfb, 0x05, 0xff, 0xff, 0x00, 0x06, 0xfd, 0x01,
  0xfd, 0x03, 0xfe, 0xfe, 0x01, 0xfd, 0x03, 0x04, 0xf9, 0x07, 0x07, 0xf8,
  0xfb, 0xfb, 0x06, 0x04, 0x06, 0x08, 0x05, 0xfe, 0xfa, 0xff, 0x00, 0xfc,
  0x04, 0x08, 0xfd, 0x04, 0x0c, 0x04, 0x06, 0xff, 0xfc, 0x09, 0x01, 0xf8,
  0xfb, 0xfb, 0x02, 0x05, 0xf7, 0xfe, 0x08, 0xf9, 0x04, 0x0a, 0x05, 0xfc,
  0xfb, 0xfd, 0xff, 0xfe, 0xfe, 0xfe, 0xfc, 0xfe, 0x03, 0xfb, 0xfc, 0xfe,
  0x09, 0x00, 0xfd, 0xfc, 0xfe, 0x03, 0x05, 0xfd, 0x05, 0xfe, 0x03, 0xf8,
  0xfb, 0x07, 0xfd, 0xfd, 0x04, 0xfa, 0x03, 0x05, 0xff, 0xfe, 0xf8, 0x07,
  0xfd, 0xfd, 0x06, 0x03, 0xfe, 0x00, 0xfb, 0x06, 0xf8, 0xff, 0x01, 0xff,
  0xff, 0xf9, 0xfb, 0xfc, 0x00, 0xf8, 0x07, 0xfc, 0xfe, 0x02, 0x02, 0xfd,
  0x06, 0x02, 0x06, 0xfa, 0xf8, 0xf8, 0xf9, 0x02, 0x06, 0x04, 0xfe, 0x00,
  0x01, 0xfa, 0x05, 0x07, 0x07, 0xf8, 0x01, 0x00, 0x02, 0xfd, 0xfd, 0x01,
  0x06, 0xfe, 0x04, 0xfc, 0x01, 0x00, 0xfc, 0x00, 0x03, 0xfc, 0x01, 0x00,
  0x01, 0x00, 0xfc, 0x02, 0xff, 0x05, 0x02, 0xff, 0x01, 0xfd, 0xfb, 0x04,
  0xff, 0xfe, 0xff, 0xfe, 0x02, 0xf9, 0xfa, 0xf6, 0x00, 0x02, 0x01, 0xff,
  0xfa, 0x07, 0xff, 0xfe, 0x05, 0xf8, 0x03, 0xfd, 0x05, 0xfe, 0xf9, 0xfe,
  0xfe, 0x05, 0x01, 0x02, 0xff, 0xff, 0x04, 0x06, 0x05, 0xfd, 0x04, 0xfb,
  0xfe, 0x02, 0x05, 0x04, 0x01, 0x01, 0xf8, 0x05, 0xfb, 0x03, 0x03, 0xff,
  0x03, 0xfe, 0x00, 0xf8, 0x02, 0x01, 0xfe, 0xfe, 0x07, 0x03, 0x07, 0x01,
  0xf8, 0xf9, 0xfe, 0xff, 0x00, 0x02, 0xff, 0xff, 0x05, 0x04, 0xff, 0x01,
  0x08, 0x02, 0x07, 0xfe, 0xfb, 0x04, 0xfb, 0x00, 0x0e, 0x01, 0x07, 0xff,
  0xfb, 0x09, 0xfe, 0x00, 0x01, 0xfc, 0x00, 0xff, 0xfa, 0x01, 0x01, 0x00,
  0x05, 0x00, 0x01, 0x07, 0x05, 0x01, 0xf6, 0xfc, 0x01, 0x05, 0x08, 0xfd,
  0xf7, 0x04, 0xfb, 0xfb, 0xfb, 0xfc, 0x06, 0xfc, 0x09, 0x03, 0xf9, 0xfd,
  0x02, 0xfd, 0x00, 0xfe, 0x05, 0xfe, 0xff, 0x05, 0x08, 0x06, 0x05, 0xfe,
  0x02, 0x05, 0xfd, 0x00, 0xfb, 0xff, 0xfd, 0x09, 0xfd, 0xfc, 0xfa, 0x09,
  0xfe, 0xf8, 0xff, 0xf8, 0x04, 0xff, 0xfc, 0xfb, 0x04, 0x02, 0x00, 0xfe,
  0xfc, 0xff, 0xfb, 0x01, 0xfd, 0x01, 0xff, 0xfe, 0xfd, 0x03, 0x07, 0xfe,
  0xfb, 0x01, 0x08, 0x05, 0xfa, 0x05, 0x09, 0x04, 0x07, 0x02, 0x03, 0xf9,
  0xf9, 0x09, 0xff, 0xff, 0x01, 0xfd, 0x04, 0x01, 0xfe, 0xfe, 0xfa, 0x05,
  0x01, 0x04, 0x02, 0xfe, 0x02, 0xfd, 0x01, 0xfc, 0x07, 0x00, 0x01, 0x09,
  0xfd, 0xf8, 0x03, 0x07, 0x04, 0xfc, 0x01, 0x00, 0x00, 0x06, 0xf9, 0xfc,
  0x01, 0x05, 0x01, 0x05, 0x00, 0x06, 0x00, 0x01, 0x01, 0xfd, 0xfd, 0x01,
  0x02, 0x05, 0xfd, 0x03, 0xfd, 0xfd, 0xfd, 0x00, 0x07, 0x03, 0xf7, 0x03,
  0xfd, 0x09, 0xfd, 0x00, 0x04, 0x01, 0x03, 0xff, 0x07, 0x07, 0x09, 0x08,
  0x04, 0x04, 0x02, 0xfe, 0xfb, 0x05, 0x03, 0xfe, 0x06, 0xf9, 0x01, 0x01,
  0x02, 0x01, 0x01, 0xfb, 0x02, 0x03, 0x05, 0x03, 0xf8, 0xfb, 0xff, 0xfc,
  0xff, 0xfc, 0x03, 0xfb, 0xff, 0xfc, 0x04, 0xff, 0x01, 0x04, 0x07, 0xfc,
  0x04, 0x06, 0x04, 0x05, 0x07, 0x07, 0x01, 0x01, 0xfb, 0x06, 0xfe, 0xff,
  0xfb, 0xfc, 0x02, 0xfe, 0x00, 0xfc, 0xfe, 0xfb, 0x04, 0xfa, 0xff, 0x02,
  0x02, 0x00, 0x01, 0x07, 0x03, 0xfb, 0xfe, 0x05, 0x00, 0xff, 0xfd, 0x00,
  0x01, 0xfb, 0xfb, 0x06, 0x03, 0xfc, 0x05, 0x02, 0x07, 0x03, 0x08, 0xfc,
  0xfe, 0xfc, 0x05, 0xfa, 0x07, 0xfa, 0x03, 0xfb, 0xfc, 0x01, 0x01, 0x06,
  0xfb, 0xfc, 0xfb, 0x00, 0xfc, 0xfc, 0xf9, 0x00, 0x04, 0x05, 0xfe, 0x02,
  0x06, 0x03, 0x00, 0x00, 0x03, 0x01, 0xfb, 0x01, 0x06, 0xfe, 0xff, 0x08,
  0x05, 0x05, 0xff, 0x04, 0xfa, 0xfe, 0x06, 0x02, 0xf7, 0x04, 0xfd, 0x00,
  0x01, 0x01, 0x02, 0x04, 0x07, 0xfe, 0xfd, 0x01, 0x01, 0xff, 0x09, 0xfe,
  0x00, 0xff, 0xf6, 0xff, 0x04, 0xfe, 0xfe, 0x02, 0x01, 0xfd, 0x01, 0xff,
  0xff, 0x02, 0xfb, 0x01, 0x02, 0xfe, 0xfa, 0xfd, 0xff, 0xfe, 0xf8, 0xfe,
  0xfe, 0x07, 0x03, 0xfe, 0x04, 0x04, 0xfd, 0x05, 0x06, 0x01, 0x00, 0x04,
  0xfe, 0xf6, 0x07, 0x03, 0xf8, 0x06, 0xf6, 0xfe, 0x00, 0x00, 0xfd, 0xfa,
  0xff, 0xfb, 0x01, 0xfc, 0xf4, 0xfe, 0x04, 0x00, 0xf6, 0x05, 0x04, 0xfc,
  0x02, 0x00, 0x03, 0xf5, 0xf8, 0xfe, 0x01, 0xfc, 0xfc, 0xff, 0xfe, 0x01,
  0x04, 0xfd, 0xfc, 0x06, 0x01, 0xfd, 0xff, 0xff, 0x02, 0x03, 0x06, 0x01,
  0xfe, 0x08, 0x07, 0xfa, 0xfb, 0x04, 0xfe, 0xfd, 0xfa, 0x00, 0x07, 0x07,
  0xff, 0x05, 0x07, 0xfe, 0xfd, 0x02, 0x04, 0xff, 0x09, 0xfd, 0xff, 0x03,
  0x06, 0x00, 0xff, 0xfd, 0xfd, 0x08, 0xfa, 0xff, 0x00, 0x04, 0xfd, 0x04,
  0x09, 0x01, 0xfe, 0xfa, 0xf8, 0x06, 0xfd, 0xfe, 0x03, 0x03, 0x03, 0x06,
  0x00, 0x04, 0xfc, 0xfa, 0xfc, 0x00, 0x06, 0xfd, 0x06, 0x02, 0x09, 0x01,
  0x01, 0x01, 0xfd, 0x08, 0xfc, 0x02, 0x00, 0xfa, 0xfd, 0x03, 0xfd, 0xf7,
  0x05, 0xff, 0x04, 0xfb, 0xff, 0x04, 0x03, 0x09, 0xfe, 0xf8, 0x06, 0xf9,
  0xfe, 0xfb, 0xf9, 0xfe, 0x07, 0x03, 0x07, 0x03, 0x05, 0xf9, 0xf8, 0x00,
  0x02, 0x05, 0x04, 0xfd, 0xfd, 0x04, 0xfd, 0x00, 0x01, 0x05, 0xff, 0xfd,
  0x05, 0x00, 0x03, 0xff, 0x05, 0x05, 0x04, 0x00, 0x02, 0x03, 0xfe, 0xfe,
  0xfd, 0xfb, 0x01, 0xff, 0x08, 0xfd, 0x01, 0x06, 0xfd, 0x03, 0xfd, 0x03,
  0x09, 0x00, 0xff, 0x02, 0x00, 0xff, 0xf9, 0xfa, 0x05, 0xfe, 0xf7, 0x09,
  0x04, 0x01, 0x03, 0x00, 0x08, 0x04, 0xfc, 0x00, 0xfe, 0x04, 0x00, 0xfe,
  0xfa, 0xf9, 0x05, 0x08, 0x05, 0x01, 0x02, 0xf8, 0x02, 0x09, 0x03, 0x01,
  0xfd, 0x02, 0xfc, 0xfe, 0xf8, 0x03, 0xf9, 0xfe, 0x0a, 0x00, 0x04, 0xfe,
  0x00, 0xfe, 0xfd, 0x03, 0xfa, 0xfd, 0x03, 0x02, 0xfd, 0xfa, 0x01, 0xff,
  0x05, 0xfe, 0x04, 0xfb, 0x02, 0xfb, 0xfc, 0xff, 0x02, 0xfd, 0xff, 0xfc,
  0xff, 0xff, 0x05, 0x06, 0x00, 0x06, 0xfc, 0x05, 0x00, 0xf9, 0x02, 0x06,
  0x02, 0xfe, 0xff, 0xfb, 0x04, 0xff, 0xfe, 0x04, 0x01, 0xf9, 0xfd, 0x06,
  0x03, 0x00, 0xfa, 0xff, 0x05, 0xfc, 0xfc, 0xfe, 0x06, 0xff, 0x09, 0xfc,
  0x00, 0x06, 0x01, 0xfa, 0x02, 0x02, 0x02, 0xfd, 0x07, 0xf9, 0xfc, 0xfd,
  0xfb, 0xfd, 0x02, 0xfb, 0x0a, 0x04, 0xf8, 0xfd, 0x01, 0xfb, 0x00, 0xf9,
  0x04, 0xff, 0xfb, 0x06, 0x03, 0xff, 0xf7, 0x01, 0x02, 0x00, 0xfb, 0x01,
  0xfd, 0xfb, 0x00, 0x04, 0xff, 0xff, 0xff, 0x09, 0x07, 0x03, 0x03, 0xfc,
  0x0c, 0x08, 0xfa, 0xff, 0x05, 0xff, 0xf7, 0x00, 0x00, 0xf7, 0x00, 0x04,
  0x02, 0x02, 0xfd, 0x0b, 0x03, 0x05, 0x00, 0xfe, 0xfe, 0xfa, 0xfd, 0xf9,
  0xfe, 0xf8, 0xff, 0x02, 0x00, 0xfc, 0xf9, 0x07, 0x02, 0xfb, 0xfa, 0x06,
  0x03, 0xfb, 0x04, 0xfd, 0xfd, 0x03, 0xfc, 0xfc, 0x04, 0xf8, 0x04, 0x02,
  0xff, 0xfc, 0x03, 0x02, 0x04, 0xff, 0x00, 0xff, 0xfc, 0xf7, 0x00, 0x01,
  0xfc, 0x01, 0x01, 0x03, 0x09, 0x03, 0x02, 0xfc, 0x04, 0xfd, 0x02, 0x02,
  0x00, 0xfa, 0xfe, 0xfe, 0xfc, 0x03, 0xf4, 0xfd, 0x02, 0xf8, 0xfc, 0x00,
  0xfb, 0xfa, 0xfd, 0xfd, 0x03, 0xfd, 0xfc, 0xfb, 0xfc, 0xfb, 0x03, 0xfa,
  0x01, 0x08, 0xff, 0x00, 0xfe, 0x00, 0xff, 0x02, 0xfb, 0xf9, 0x04, 0xfc,
  0x0a, 0xf4, 0xf7, 0xf8, 0x08, 0xf8, 0x03, 0x00, 0xfc, 0x07, 0xfb, 0x05,
  0x00, 0xf9, 0x05, 0x03, 0x02, 0xfc, 0x07, 0x00, 0xff, 0xfb, 0x01, 0x04,
  0xff, 0xfe, 0x02, 0xff, 0xf9, 0x01, 0xf9, 0x06, 0xff, 0xf8, 0x0a, 0x06,
  0x04, 0x01, 0xf5, 0x01, 0x02, 0x01, 0x04, 0xfa, 0xfc, 0x06, 0xfe, 0x02,
  0xfb, 0xfd, 0x03, 0xff, 0x01, 0xfd, 0xfe, 0xfb, 0x03, 0x0b, 0x02, 0xfe,
  0xfe, 0xf4, 0xfa, 0x03, 0xff, 0x00, 0x06, 0x05, 0x00, 0xf7, 0xf4, 0xff,
  0xfa, 0x00, 0x01, 0x00, 0xfe, 0xf9, 0xff, 0xff, 0xf8, 0xf9, 0x02, 0x04,
  0x02, 0xfd, 0xf9, 0xf9, 0xf7, 0xfb, 0x03, 0xfa, 0xfe, 0xf9, 0x00, 0xfe,
  0xfd, 0xfc, 0x07, 0x02, 0x06, 0x09, 0xfe, 0x02, 0x01, 0xfb, 0xfb, 0x02,
  0x03, 0x02, 0x01, 0xfd, 0x02, 0x03, 0xfe, 0xf8, 0x02, 0x07, 0xfd, 0x01,
  0xfc, 0xfb, 0x01, 0x03, 0xff, 0x00, 0xff, 0xfc, 0x05, 0xfb, 0xff, 0x01,
  0x04, 0x04, 0xf9, 0xfe, 0x01, 0x02, 0x06, 0xfb, 0xfb, 0x01, 0x02, 0xfb,
  0xfe, 0x02, 0x03, 0xf9, 0xfb, 0x06, 0xfa, 0xfe, 0x01, 0x03, 0xf7, 0xf9,
  0x00, 0x06, 0xfe, 0x06, 0xfe, 0xfe, 0x07, 0xff, 0xfb, 0xfb, 0x04, 0xfe,
  0xfa, 0x05, 0xfc, 0x02, 0xfb, 0x02, 0x03, 0x03, 0x06, 0x02, 0x02, 0xfd,
  0x05, 0xf8, 0x02, 0x06, 0x07, 0xfe, 0xf7, 0xfe, 0x07, 0x02, 0xff, 0xfe,
  0xff, 0x00, 0xfb, 0x00, 0x01, 0xf9, 0xfe, 0x06, 0x03, 0x08, 0xf6, 0xfc,
  0xfa, 0x04, 0xfd, 0xfd, 0xfe, 0x05, 0xff, 0xfe, 0xff, 0x03, 0x07, 0x05,
  0xfb, 0x07, 0xfb, 0x01, 0x04, 0xfe, 0x03, 0x04, 0xfd, 0xff, 0x09, 0x08,
  0x05, 0x05, 0x04, 0xff, 0x05, 0x09, 0xfd, 0xfa, 0xfd, 0x02, 0x00, 0x03,
  0xfe, 0x0a, 0xfd, 0x07, 0x0a, 0x05, 0x03, 0x02, 0x00, 0xf5, 0xff, 0x00,
  0xff, 0x06, 0x03, 0x01, 0x01, 0x07, 0x08, 0x03, 0xfa, 0x0d, 0x07, 0x02,
  0xf9, 0xfb, 0x01, 0xfe, 0x04, 0x08, 0x03, 0xff, 0x06, 0xf4, 0xfd, 0xfd,
  0x05, 0xfa, 0x01, 0xfd, 0x05, 0x02, 0xfd, 0xfb, 0xff, 0x02, 0x07, 0x00,
  0x04, 0xf7, 0xfb, 0x03, 0x00, 0xf8, 0xfb, 0x04, 0x01, 0x01, 0x06, 0xfa,
  0x00, 0x02, 0xfc, 0xfd, 0xfc, 0x03, 0x04, 0xff, 0x00, 0xfa, 0x00, 0x01,
  0x01, 0x08, 0xf9, 0xf8, 0x06, 0xfb, 0x01, 0xf0, 0x03, 0xfb, 0x08, 0xfc,
  0x04, 0xfc, 0xfc, 0xff, 0x00, 0x04, 0x02, 0x04, 0xff, 0x00, 0xfe, 0x00,
  0x01, 0xfe, 0xfe, 0xfc, 0x0b, 0x04, 0x0d, 0xfe, 0x05, 0x03, 0xfa, 0x07,
  0x00, 0x07, 0xff, 0xfd, 0x09, 0x0b, 0x09, 0xf9, 0xfb, 0xf3, 0x01, 0xff,
  0x04, 0xf7, 0x01, 0xfb, 0xfe, 0x00, 0xfa, 0x0b, 0xfe, 0x05, 0x07, 0x00,
  0x00, 0x02, 0x00, 0xf7, 0xfe, 0x03, 0xfa, 0xfb, 0xfe, 0xfc, 0x02, 0xff,
  0x00, 0x02, 0xfa, 0x06, 0x08, 0x0a, 0xf7, 0xfe, 0xfd, 0x05, 0xfe, 0xfd,
  0x04, 0x04, 0x0b, 0x06, 0xfa, 0x01, 0xfe, 0x02, 0x05, 0x06, 0x01, 0x04,
  0xf9, 0x00, 0xfa, 0x04, 0xfb, 0xfc, 0xfc, 0x05, 0xfe, 0x00, 0x00, 0x06,
  0xfe, 0x05, 0xfb, 0x00, 0x06, 0x05, 0xf8, 0xfa, 0x07, 0x00, 0x02, 0x08,
  0x03, 0xff, 0xf6, 0x02, 0x00, 0xf7, 0x00, 0x03, 0xfb, 0x02, 0x00, 0xfc,
  0x06, 0xf9, 0xfa, 0xfe, 0xfa, 0x06, 0x03, 0xff, 0xfe, 0x00, 0x02, 0xfc,
  0xfb, 0x03, 0xfa, 0x00, 0x00, 0xfb, 0xfd, 0xfb, 0x04, 0xfb, 0x04, 0x01,
  0x04, 0x00, 0xfd, 0x00, 0xfa, 0xfa, 0xf9, 0xfe, 0x03, 0xfd, 0x00, 0x04,
  0x04, 0xfe, 0x04, 0xf9, 0xf6, 0x06, 0x03, 0x00, 0xf8, 0x05, 0xfd, 0x03,
  0xfb, 0x02, 0x07, 0x06, 0xfb, 0xfe, 0xfb, 0x08, 0x07, 0x07, 0x00, 0xfe,
  0x00, 0x02, 0xfe, 0xff, 0xfd, 0x07, 0xfe, 0x03, 0x05, 0x01, 0xfc, 0xfb,
  0x01, 0xfa, 0x00, 0xfc, 0x00, 0x09, 0x03, 0xfd, 0x03, 0x04, 0x03, 0xfe,
  0x00, 0x03, 0x08, 0xfd, 0x05, 0x03, 0x04, 0x05, 0x04, 0xff, 0xff, 0x02,
  0x00, 0xfd, 0xfb, 0xfe, 0x09, 0x07, 0x01, 0xfc, 0xfe, 0x07, 0x08, 0xfb,
  0x02, 0xfc, 0x06, 0xff, 0x00, 0xff, 0x04, 0x04, 0x0b, 0x08, 0xfa, 0xff,
  0x02, 0x05, 0x05, 0x06, 0x02, 0x05, 0x03, 0xfc, 0xfc, 0xfd, 0x01, 0xfd,
  0xff, 0xfb, 0xf8, 0x02, 0x04, 0xfc, 0x02, 0x01, 0x03, 0xfb, 0x03, 0x04,
  0x03, 0x05, 0x00, 0xfd, 0xfd, 0x07, 0x00, 0x03, 0x02, 0x02, 0x04, 0xf8,
  0x06, 0x03, 0x02, 0xf9, 0xf8, 0xfb, 0xff, 0x04, 0x03, 0x02, 0x03, 0xfc,
  0xff, 0x03, 0xfc, 0xff, 0xfc, 0x02, 0xf9, 0x03, 0x04, 0x06, 0x06, 0x04,
  0xfe, 0xfd, 0xfe, 0x03, 0xfd, 0xfc, 0x01, 0x04, 0xfd, 0x05, 0xf8, 0x05,
  0x05, 0x04, 0xfb, 0xfb, 0x01, 0x02, 0x00, 0xfb, 0x06, 0x04, 0x04, 0xfa,
  0x04, 0x06, 0xf5, 0x05, 0xfd, 0x00, 0x00, 0x03, 0xfc, 0x05, 0x01, 0x02,
  0x07, 0x02, 0x02, 0xfe, 0x02, 0x08, 0x00, 0xfb, 0x01, 0x04, 0x04, 0x06,
  0xfb, 0x04, 0xfb, 0x04, 0xfe, 0x02, 0x09, 0xff, 0xfe, 0xff, 0xf8, 0x01,
  0xfe, 0x02, 0x04, 0x0a, 0x00, 0xfa, 0xfe, 0xfb, 0xff, 0xfd, 0x04, 0xfd,
  0x09, 0xfb, 0xfe, 0xfc, 0x00, 0xff, 0x05, 0x02, 0x01, 0x03, 0x04, 0xfc,
  0xff, 0x01, 0xfe, 0x02, 0x02, 0x05, 0xfe, 0xfa, 0x03, 0x08, 0x07, 0xff,
  0xfe, 0xff, 0x01, 0xfd, 0x03, 0xfc, 0xfe, 0x00, 0xfc, 0xfb, 0xfe, 0x01,
  0x02, 0xfe, 0x0a, 0x08, 0xfd, 0x05, 0x0b, 0x06, 0x05, 0xfd, 0x00, 0xfc,
  0xfe, 0x01, 0xff, 0x01, 0x00, 0x01, 0x06, 0xfe, 0xf6, 0x01, 0xf8, 0x03,
  0x03, 0x08, 0xfc, 0x01, 0xff, 0xfc, 0xf9, 0xf7, 0xff, 0x06, 0x08, 0x09,
  0x04, 0x02, 0x00, 0xfe, 0xfd, 0x03, 0x02, 0x07, 0xff, 0x08, 0x02, 0xfc,
  0xfc, 0x05, 0x0a, 0x08, 0xfd, 0xff, 0x03, 0xfd, 0x06, 0xfa, 0xff, 0xf8,
  0xf9, 0x00, 0xfe, 0x01, 0x01, 0x02, 0xff, 0x06, 0xfc, 0x07, 0x04, 0xfe,
  0xfc, 0xfe, 0x00, 0x00, 0x03, 0xfe, 0x01, 0x06, 0xfb, 0xfd, 0x03, 0xfe,
  0xff, 0xfe, 0x08, 0x07, 0x06, 0xf8, 0x05, 0x01, 0xfe, 0xfd, 0xfe, 0xfb,
  0x03, 0x04, 0xfc, 0x03, 0xff, 0xfc, 0xfe, 0x05, 0xfe, 0x00, 0x08, 0xfa,
  0x05, 0xf9, 0x03, 0xfe, 0xfc, 0xfc, 0x02, 0x06, 0xff, 0x08, 0x00, 0x05,
  0x03, 0xfd, 0x03, 0xfb, 0xfd, 0x05, 0xf9, 0x01, 0xfe, 0xff, 0x03, 0xfe,
  0x01, 0x06, 0x01, 0xfc, 0x02, 0xf9, 0xfb, 0xff, 0xfd, 0xfd, 0x07, 0x01,
  0xfc, 0xff, 0x01, 0x01, 0xf9, 0xf9, 0xf7, 0x05, 0xfb, 0x05, 0x00, 0x02,
  0xfe, 0xfe, 0xfd, 0xfe, 0x06, 0x00, 0x02, 0x06, 0x06, 0xfd, 0x06, 0xfd,
  0xfe, 0xfb, 0x05, 0xfb, 0x06, 0x02, 0xfa, 0x03, 0x03, 0xfc, 0xfe, 0x06,
  0xfe, 0x05, 0x06, 0xff, 0x01, 0x03, 0x03, 0xfd, 0x03, 0x0b, 0x07, 0x01,
  0xfe, 0xfc, 0x05, 0xfd, 0xfe, 0x01, 0x03, 0xff, 0x04, 0xff, 0x05, 0x01,
  0xfa, 0x03, 0xfd, 0xfc, 0xfc, 0x01, 0x0a, 0x03, 0xfd, 0x00, 0xfd, 0x01,
  0xfc, 0xf9, 0x08, 0x01, 0xfc, 0xf7, 0xfb, 0xfd, 0x01, 0xfe, 0xff, 0xfd,
  0x02, 0x07, 0xfe, 0x06, 0x08, 0x07, 0x01, 0xf6, 0xfe, 0xf8, 0x02, 0xfe,
  0xfc, 0x07, 0x04, 0xf8, 0x02, 0x02, 0x05, 0xfc, 0x07, 0x06, 0x00, 0x02,
  0x04, 0xfe, 0xff, 0xfb, 0xfc, 0x04, 0xff, 0x00, 0xfe, 0x04, 0xfb, 0x07,
  0x07, 0xfb, 0xfb, 0xfd, 0xfd, 0x03, 0xf9, 0xfb, 0x02, 0x04, 0x09, 0x03,
  0x00, 0x04, 0x01, 0x08, 0x0b, 0xfd, 0x02, 0x03, 0x02, 0xff, 0xfd, 0x00,
  0x00, 0x08, 0xff, 0x08, 0x00, 0xff, 0x04, 0x06, 0x05, 0x06, 0xfd, 0xf9,
  0x01, 0x00, 0xfa, 0xff, 0xff, 0x06, 0x04, 0xfd, 0xf9, 0xfe, 0xfa, 0x04,
  0x01, 0x08, 0x05, 0x03, 0x01, 0xfb, 0x03, 0x07, 0x06, 0x00, 0xfe, 0xf9,
  0xf9, 0xfb, 0x05, 0x01, 0x00, 0xfe, 0x00, 0x02, 0x05, 0x08, 0x03, 0x02,
  0xfb, 0x00, 0xfb, 0x03, 0x04, 0x00, 0x05, 0xfa, 0x07, 0xfa, 0x06, 0xff,
  0xfe, 0x0a, 0xfb, 0xfc, 0xfe, 0xfa, 0x01, 0xfe, 0xfb, 0xfe, 0x04, 0xf9,
  0x08, 0x00, 0xff, 0xfd, 0x01, 0xff, 0xf9, 0x06, 0xfd, 0xfa, 0xfe, 0x00,
  0x01, 0xfe, 0xfd, 0xfb, 0x03, 0xf8, 0xfe, 0xfe, 0xfe, 0x01, 0xff, 0xff,
  0xfb, 0xfc, 0x05, 0x07, 0x01, 0xff, 0xff, 0x04, 0xfc, 0x00, 0x06, 0x06,
  0xf9, 0x05, 0xfb, 0xf9, 0xfe, 0x00, 0x09, 0xfb, 0x03, 0x02, 0xfc, 0x02,
  0xfe, 0x09, 0x00, 0xfe, 0xfb, 0xfc, 0x02, 0x08, 0x06, 0x02, 0xfd, 0xfc,
  0x03, 0x07, 0xfb, 0xfb, 0x01, 0x02, 0xff, 0xfd, 0xfd, 0x02, 0xfa, 0x05,
  0xfe, 0xff, 0x01, 0x03, 0x03, 0xfc, 0x03, 0xff, 0x09, 0xfe, 0x06, 0x03,
  0x01, 0xfe, 0x05, 0x02, 0xff, 0x05, 0x03, 0xfa, 0xfa, 0xf8, 0x02, 0x07,
  0x03, 0x03, 0xfd, 0xfd, 0x01, 0x05, 0x04, 0xfb, 0x03, 0x01, 0x04, 0x05,
  0xff, 0x04, 0xfe, 0xff, 0x00, 0x03, 0x00, 0xff, 0xfb, 0x05, 0xff, 0x02,
  0xfa, 0x01, 0xff, 0x03, 0x01, 0x06, 0x02, 0xfe, 0x01, 0xfe, 0x01, 0x03,
  0x03, 0x03, 0x05, 0x02, 0xf9, 0x06, 0xfd, 0xff, 0x04, 0xfb, 0xfd, 0xff,
  0xfe, 0xf7, 0x05, 0x01, 0x01, 0xfc, 0x02, 0x01, 0x02, 0xf6, 0xfa, 0x00,
  0xfe, 0x01, 0xfd, 0x00, 0x01, 0xf9, 0xff, 0x06, 0x05, 0x08, 0x02, 0xfc,
  0x05, 0x01, 0x01, 0xfb, 0xfd, 0xff, 0x08, 0x01, 0xfd, 0x08, 0x0b, 0x01,
  0x08, 0xfc, 0xf6, 0xfd, 0x04, 0x00, 0x00, 0x06, 0x02, 0x08, 0xff, 0xfb,
  0xfb, 0x02, 0x00, 0xfd, 0x00, 0x09, 0x05, 0x02, 0x04, 0x01, 0x00, 0x05,
  0xfe, 0xff, 0xff, 0xff, 0x01, 0x05, 0x06, 0xfc, 0xff, 0xfd, 0x01, 0xfa,
  0xfc, 0xff, 0x04, 0xff, 0x01, 0x05, 0x09, 0xfb, 0xfc, 0x02, 0xfc, 0xf8,
  0xf9, 0x00, 0xfd, 0xff, 0x06, 0xfd, 0x09, 0x03, 0xfb, 0x00, 0x06, 0x03,
  0x04, 0x01, 0x07, 0x06, 0xfd, 0xfe, 0xfe, 0xf9, 0xff, 0x03, 0x09, 0x06,
  0x06, 0xfa, 0x04, 0x0a, 0x01, 0x04, 0xfd, 0xf6, 0x04, 0xfa, 0xfe, 0xff,
  0x05, 0x05, 0x04, 0x05, 0x03, 0x07, 0x02, 0x08, 0xfa, 0x0a, 0x09, 0xff,
  0x02, 0x05, 0x04, 0xfc, 0x03, 0x06, 0x03, 0x09, 0x01, 0xfe, 0x00, 0x04,
  0x03, 0xfd, 0x04, 0x04, 0xfc, 0x04, 0xfc, 0x01, 0xfa, 0x01, 0x0a, 0x01,
  0xfc, 0x01, 0x04, 0x09, 0xfb, 0x00, 0x04, 0x02, 0xff, 0x05, 0xfa, 0xf7,
  0xfb, 0xfb, 0x09, 0x03, 0x00, 0xf8, 0xfd, 0xfe, 0xfd, 0xfe, 0x03, 0x03,
  0x02, 0x01, 0xfb, 0x03, 0x03, 0x01, 0x06, 0x00, 0x03, 0xfb, 0xfe, 0x0a,
  0xfc, 0x00, 0x00, 0x05, 0xfd, 0xfe, 0xf9, 0x05, 0xfd, 0x02, 0xfc, 0xfe,
  0xf7, 0xf9, 0x01, 0x05, 0x00, 0x00, 0x06, 0xfd, 0x00, 0x04, 0xff, 0xf9,
  0x01, 0x06, 0xfd, 0x00, 0xfb, 0x01, 0xfa, 0x00, 0xfe, 0xfa, 0x04, 0x00,
  0xff, 0x08, 0x02, 0xf8, 0x04, 0x01, 0xfe, 0x00, 0xfd, 0x00, 0xf8, 0x07,
  0x09, 0x00, 0xff, 0xff, 0xfa, 0x04, 0x00, 0xfd, 0xfd, 0xfc, 0x05, 0x00,
  0x0a, 0x02, 0x00, 0x02, 0x00, 0x03, 0xfa, 0x01, 0xfd, 0x00, 0xfa, 0xfb,
  0x03, 0xfe, 0x05, 0x02, 0xfb, 0xfd, 0xfb, 0x02, 0x03, 0x08, 0x06, 0xf9,
  0xf9, 0xfc, 0x05, 0x07, 0x06, 0x02, 0xfa, 0x04, 0xfe, 0x04, 0x05, 0x05,
  0x07, 0x07, 0x05, 0xfd, 0x06, 0x03, 0x02, 0xfb, 0x02, 0x09, 0xfd, 0xfe,
  0xfa, 0x04, 0x00, 0x01, 0xff, 0x03, 0x06, 0x01, 0xfd, 0x04, 0x03, 0xfa,
  0xfc, 0x01, 0x04, 0xfa, 0x01, 0x00, 0xfe, 0x00, 0xfc, 0x08, 0x09, 0xf7,
  0xfd, 0x04, 0x03, 0x04, 0xfb, 0xfd, 0x03, 0xff, 0xff, 0x07, 0x09, 0x07,
  0x08, 0xfe, 0x02, 0x09, 0xff, 0xfd, 0xfd, 0x04, 0xff, 0xff, 0x02, 0x06,
  0x02, 0x0a, 0x02, 0x07, 0x04, 0xfa, 0x02, 0xfc, 0x04, 0x03, 0xfe, 0x03,
  0xf8, 0xff, 0xff, 0xfb, 0xfa, 0x01, 0xfb, 0x07, 0x05, 0x06, 0x06, 0x03,
  0x05, 0xfe, 0x02, 0x01, 0x04, 0x00, 0x02, 0x00, 0xfa, 0x05, 0xfd, 0x0c,
  0xfa, 0x00, 0xfe, 0x00, 0x00, 0x04, 0x00, 0xfc, 0x07, 0x07, 0x11, 0x0b,
  0xfe, 0x05, 0x0a, 0x05, 0xfc, 0xff, 0x01, 0x05, 0xfb, 0x01, 0x02, 0x03,
  0x06, 0xfc, 0x0b, 0xfd, 0xfe, 0x08, 0x0c, 0x02, 0x09, 0x10, 0x0b, 0x03,
  0x01, 0xf6, 0x02, 0x05, 0x02, 0xfd, 0x05, 0xfe, 0xff, 0x0a, 0x06, 0xff,
  0xff, 0x06, 0x00, 0xfb, 0xfd, 0x09, 0xfe, 0x01, 0x03, 0xff, 0x06, 0x01,
  0xff, 0x07, 0x07, 0x05, 0xf9, 0x0a, 0xfd, 0xff, 0xff, 0xfc, 0x04, 0x01,
  0xff, 0xfc, 0x02, 0x03, 0xfd, 0xff, 0x0d, 0x03, 0x03, 0x0f, 0x07, 0xfe,
  0xfd, 0x05, 0xfa, 0xfe, 0x03, 0xfa, 0x00, 0x09, 0x10, 0x06, 0x02, 0x0f,
  0x05, 0x0a, 0x01, 0xfb, 0x08, 0x03, 0xfe, 0xfa, 0x03, 0x09, 0x05, 0x06,
  0xfb, 0x02, 0x04, 0x01, 0x0b, 0xff, 0xfd, 0x06, 0x05, 0x01, 0x06, 0x06,
  0x02, 0x04, 0x0f, 0x09, 0xfe, 0x05, 0xfc, 0x05, 0x07, 0x01, 0x07, 0x00,
  0xff, 0x03, 0xfe, 0x01, 0x03, 0xff, 0x0b, 0x00, 0x02, 0xff, 0xfb, 0x07,
  0x08, 0xfe, 0xfe, 0xfc, 0x03, 0xfe, 0xff, 0x02, 0xfe, 0x01, 0x08, 0xfc,
  0xf8, 0xff, 0xff, 0xff, 0x03, 0xfb, 0xfe, 0xfd, 0xfd, 0xfc, 0xfc, 0x05,
  0x04, 0x03, 0xf9, 0x02, 0xfe, 0x00, 0x04, 0x00, 0xfd, 0xf4, 0xfd, 0x04,
  0x05, 0x02, 0xfb, 0x02, 0x00, 0x03, 0x02, 0xfb, 0x00, 0xfd, 0x02, 0x04,
  0x0b, 0xfe, 0xfa, 0x00, 0x01, 0x04, 0x01, 0xf9, 0x02, 0xfa, 0x01, 0xff,
  0xfc, 0xfd, 0x06, 0x02, 0x05, 0x05, 0xfd, 0xff, 0xfb, 0xff, 0x00, 0x00,
  0xfd, 0x00, 0x01, 0x04, 0xfb, 0x04, 0xfe, 0x05, 0xff, 0xff, 0xfa, 0x03,
  0xf9, 0xff, 0x08, 0x02, 0x02, 0xfd, 0xfe, 0xff, 0x05, 0x04, 0xfc, 0x06,
  0x02, 0xfd, 0x02, 0xfe, 0x04, 0x07, 0x02, 0x08, 0x05, 0xfb, 0x04, 0x08,
  0xff, 0xfe, 0x04, 0xfb, 0x05, 0x04, 0xfa, 0xfe, 0x06, 0x07, 0xff, 0x07,
  0x01, 0x03, 0xff, 0x03, 0xfc, 0x01, 0xff, 0x01, 0x01, 0x0c, 0xfe, 0xfd,
  0x00, 0xfd, 0x00, 0xfd, 0xfc, 0x03, 0x02, 0x04, 0xfe, 0x01, 0x04, 0x07,
  0x01, 0x00, 0xfc, 0xfc, 0xfe, 0xfe, 0x06, 0x03, 0x06, 0x02, 0x07, 0x00,
  0xff, 0x03, 0xf9, 0x03, 0x0a, 0x0d, 0xfc, 0xf5, 0xfe, 0x03, 0xfa, 0xfd,
  0xfa, 0x00, 0xfe, 0x06, 0x00, 0xfc, 0x06, 0x05, 0xfd, 0x09, 0x06, 0x04,
  0x07, 0xfb, 0xfb, 0xfd, 0xfa, 0x00, 0x06, 0xf8, 0x06, 0xfe, 0x0c, 0xff,
  0xff, 0x03, 0x05, 0xf5, 0x06, 0x02, 0xfb, 0x01, 0xfd, 0x01, 0xfc, 0x06,
  0xfd, 0xfb, 0x01, 0x09, 0x08, 0x05, 0x08, 0x08, 0xfb, 0xff, 0x02, 0xfa,
  0xfd, 0xfd, 0x04, 0x04, 0x07, 0xfc, 0x07, 0x0d, 0xfd, 0x01, 0x09, 0xf9,
  0xfd, 0xfd, 0xf5, 0xfb, 0x03, 0x05, 0x08, 0xfc, 0x03, 0xfb, 0x02, 0x02,
  0x0b, 0xfa, 0x04, 0x04, 0xfc, 0xff, 0x01, 0xf9, 0xfc, 0x00, 0x0b, 0x07,
  0xfd, 0x04, 0xf7, 0x07, 0x04, 0x00, 0xfa, 0x05, 0x00, 0xfb, 0xfd, 0x02,
  0x01, 0xff, 0x0e, 0xfd, 0xfb, 0x04, 0x07, 0x08, 0x02, 0x02, 0x00, 0xfe,
  0xf8, 0x02, 0x01, 0x04, 0xfb, 0xfc, 0x03, 0x00, 0xfb, 0xfd, 0x05, 0x04,
  0x02, 0x04, 0x04, 0xfa, 0x08, 0x02, 0x01, 0x00, 0x01, 0x01, 0x05, 0x02,
  0x05, 0x01, 0x02, 0xff, 0x07, 0xff, 0x02, 0xfb, 0xfb, 0x01, 0xf8, 0x00,
  0x04, 0x09, 0x0a, 0x05, 0x07, 0x05, 0x06, 0xff, 0x00, 0x00, 0xfc, 0x02,
  0xfb, 0x01, 0xf9, 0x04, 0xfe, 0xfe, 0x08, 0x09, 0x01, 0x02, 0x07, 0x01,
  0x03, 0x0a, 0x05, 0xfe, 0xfc, 0x07, 0xfd, 0x03, 0x00, 0x02, 0x0b, 0x00,
  0x00, 0xff, 0xf8, 0xfd, 0xff, 0xf8, 0x08, 0x02, 0x05, 0x08, 0x02, 0xfc,
  0xfe, 0xfb, 0xfd, 0x02, 0xff, 0x02, 0xfb, 0x06, 0x00, 0xf9, 0x02, 0x03,
  0x03, 0x01, 0x02, 0xff, 0xfd, 0xfd, 0x09, 0x00, 0x02, 0x07, 0x03, 0xff,
  0xfe, 0x04, 0xfd, 0xfe, 0xfa, 0xfd, 0x02, 0x04, 0xfc, 0x02, 0x08, 0xfc,
  0x04, 0x00, 0xff, 0xfc, 0x00, 0xfb, 0xfa, 0x02, 0x09, 0x01, 0xf8, 0x03,
  0xfe, 0xfb, 0x01, 0x05, 0x02, 0xfb, 0x06, 0xff, 0xfa, 0xff, 0xf8, 0x02,
  0xf8, 0x05, 0x01, 0xfb, 0xf9, 0xfd, 0xff, 0xfc, 0x05, 0xfa, 0xf3, 0x02,
  0xfb, 0x04, 0x00, 0xfe, 0xf7, 0x08, 0xff, 0xfd, 0x04, 0xf8, 0xfc, 0x08,
  0xfb, 0x04, 0x06, 0x00, 0xf8, 0xfb, 0x01, 0x03, 0xfe, 0xfb, 0xf9, 0x02,
  0xfa, 0xfd, 0x01, 0xfb, 0x09, 0x01, 0x03, 0xfd, 0x04, 0x03, 0xf9, 0x04,
  0xfa, 0x09, 0xfa, 0xfd, 0xfb, 0xfb, 0x05, 0xff, 0x01, 0x04, 0xfd, 0x05,
  0xfe, 0x0b, 0x02, 0xfc, 0x04, 0x00, 0x05, 0x01, 0xfb, 0xfd, 0xfe, 0xfe,
  0x02, 0xfc, 0xfd, 0xfb, 0x03, 0x00, 0xff, 0xfe, 0x06, 0xfa, 0xfd, 0xff,
  0x05, 0xfc, 0xfc, 0xff, 0xfd, 0xf9, 0x06, 0x00, 0xff, 0xf6, 0x01, 0xfb,
  0x00, 0x05, 0xf9, 0xfc, 0x02, 0x06, 0xff, 0xfa, 0xfa, 0x04, 0xfb, 0x05,
  0x07, 0x01, 0x02, 0xff, 0x01, 0x06, 0xfe, 0xfd, 0x07, 0x02, 0x03, 0xfc,
  0xf8, 0x06, 0xff, 0xfd, 0xfb, 0xfd, 0xfa, 0xfc, 0xff, 0xfb, 0x03, 0x04,
  0xfd, 0x05, 0x01, 0x07, 0x06, 0x01, 0x04, 0xfd, 0x08, 0xfb, 0x06, 0x03,
  0xfe, 0xfa, 0xfc, 0xf9, 0xfc, 0xfe, 0x03, 0x08, 0xfd, 0x03, 0xfd, 0xfc,
  0x0a, 0x03, 0xfc, 0x0b, 0xfb, 0xfa, 0xfd, 0xfa, 0x00, 0x06, 0x09, 0x06,
  0xfb, 0x05, 0xf7, 0xfe, 0x0c, 0xfe, 0xf7, 0xf8, 0xfa, 0xfd, 0xfa, 0x03,
  0x04, 0xfe, 0x06, 0x00, 0xfd, 0xfc, 0x01, 0x00, 0x05, 0x00, 0x03, 0xfd,
  0x05, 0xff, 0xfb, 0xfd, 0x01, 0xf7, 0x02, 0x01, 0x04, 0x01, 0xfb, 0x04,
  0x00, 0x0a, 0x00, 0x06, 0xfb, 0x09, 0xf9, 0xfe, 0x04, 0xfa, 0x06, 0x03,
  0x01, 0x06, 0x04, 0x04, 0x01, 0xfd, 0xf9, 0x03, 0x08, 0x08, 0xfe, 0x00,
  0xf9, 0x01, 0x07, 0xf9, 0x03, 0x00, 0x09, 0xfc, 0x10, 0x02, 0x05, 0x04,
  0xf8, 0xfe, 0xff, 0xfb, 0x01, 0xfa, 0x04, 0x04, 0xff, 0xff, 0x04, 0xf9,
  0x02, 0xfe, 0x01, 0x03, 0xff, 0x00, 0xff, 0xfd, 0x03, 0xfd, 0xfc, 0x08,
  0x03, 0x04, 0x08, 0x01, 0x00, 0x07, 0x03, 0xff, 0x05, 0xfd, 0x02, 0x03,
  0x00, 0xfc, 0x04, 0x03, 0x03, 0xff, 0x07, 0xfb, 0x02, 0x08, 0xff, 0xfb,
  0x01, 0x06, 0xfc, 0x04, 0x01, 0x01, 0x00, 0x07, 0xff, 0xff, 0x04, 0xfc,
  0x04, 0x07, 0x03, 0x04, 0x00, 0x07, 0x00, 0x00, 0x04, 0x03, 0x08, 0x06,
  0x00, 0x03, 0x05, 0xfc, 0x02, 0xfd, 0xfe, 0x03, 0x02, 0xfd, 0x04, 0xf9,
  0xfd, 0xff, 0x04, 0x03, 0xfe, 0x02, 0x02, 0x09, 0xff, 0xf6, 0x02, 0xfe,
  0xfb, 0xfa, 0x01, 0xff, 0xff, 0x04, 0x04, 0xfa, 0xfd, 0x09, 0x07, 0x01,
  0xf7, 0xfa, 0xfa, 0x02, 0x0a, 0xfd, 0x03, 0x02, 0xfc, 0x04, 0x05, 0xfb,
  0x07, 0xff, 0x00, 0xfa, 0x04, 0xff, 0x01, 0x02, 0xf9, 0x01, 0x06, 0xfc,
  0x06, 0xfa, 0xfa, 0x00, 0x04, 0x03, 0x0a, 0x05, 0xf9, 0xfc, 0x0b, 0xf7,
  0x07, 0xff, 0xf9, 0xfc, 0xfc, 0xfb, 0x08, 0x04, 0xfb, 0x04, 0xfc, 0xfd,
  0xfc, 0x05, 0xff, 0xf5, 0x04, 0xfb, 0x01, 0x00, 0x03, 0x09, 0x01, 0xfc,
  0xff, 0xfc, 0xf8, 0x00, 0x07, 0xf7, 0xfc, 0xff, 0xfc, 0x05, 0xf7, 0xfe,
  0xfd, 0x07, 0x0b, 0x01, 0x04, 0xf5, 0x01, 0x06, 0x08, 0x01, 0x04, 0x05,
  0xfc, 0x02, 0xfc, 0xfc, 0x00, 0x03, 0x00, 0xff, 0xfc, 0xfe, 0x0f, 0xfd,
  0xfe, 0xfe, 0x04, 0xff, 0x00, 0x08, 0xfa, 0x01, 0xff, 0xfe, 0xff, 0xf4,
  0xfb, 0x06, 0xfb, 0xf6, 0xfc, 0x05, 0xfc, 0x09, 0xfb, 0x04, 0xf9, 0xfc,
  0xfa, 0x07, 0xfd, 0x07, 0x07, 0x07, 0x0a, 0xf9, 0xfd, 0xfe, 0xfd, 0xfb,
  0xfd, 0x03, 0x04, 0x05, 0xf9, 0xfe, 0xfc, 0x06, 0x05, 0xfb, 0xfd, 0xff,
  0xfc, 0xfa, 0xfe, 0x04, 0xfb, 0xfe, 0x03, 0xff, 0x02, 0xf9, 0x09, 0x05,
  0xfb, 0xfd, 0x03, 0x06, 0x00, 0x03, 0x06, 0xfe, 0xff, 0x05, 0x00, 0x02,
  0xfe, 0x06, 0x00, 0x01, 0xfb, 0x09, 0x07, 0x01, 0x02, 0x02, 0xfc, 0x05,
  0xfa, 0x01, 0xfa, 0xff, 0x06, 0xff, 0x09, 0x01, 0xfa, 0x02, 0xff, 0x03,
  0x00, 0x06, 0xfc, 0xfa, 0x07, 0xff, 0xfb, 0x01, 0xf7, 0x01, 0xfc, 0x00,
  0xfe, 0x07, 0xfb, 0x04, 0xff, 0x0b, 0x09, 0x02, 0xfb, 0x05, 0xfe, 0x02,
  0x04, 0xfe, 0x01, 0x00, 0xfb, 0x05, 0xf9, 0xff, 0x07, 0xff, 0xfe, 0xfd,
  0xf6, 0x0b, 0x04, 0x04, 0xfe, 0xfb, 0x02, 0x05, 0x01, 0xfb, 0x07, 0x03,
  0xf8, 0xf5, 0xff, 0xfd, 0xff, 0x05, 0x01, 0xf6, 0x01, 0x06, 0xfb, 0x00,
  0xff, 0x00, 0xf9, 0x03, 0x00, 0xf9, 0xfd, 0x03, 0xfe, 0xfc, 0x02, 0x01,
  0xf5, 0x01, 0x00, 0x03, 0x03, 0xfd, 0xff, 0xfd, 0x01, 0x03, 0x03, 0xff,
  0xfc, 0xfb, 0xf7, 0x05, 0xf6, 0x03, 0xfd, 0x04, 0xfd, 0xfd, 0xff, 0x00,
  0xff, 0xfb, 0xff, 0xf9, 0x01, 0x05, 0xfa, 0x06, 0x07, 0xff, 0xfd, 0x01,
  0x04, 0xf6, 0xf8, 0x04, 0x05, 0x0e, 0xfe, 0x03, 0xff, 0x0a, 0x07, 0xfd,
  0x06, 0x02, 0xfb, 0xfb, 0xfc, 0x02, 0xff, 0x01, 0x08, 0xf6, 0xf3, 0xfb,
  0x01, 0x08, 0xfe, 0x04, 0xfe, 0xfc, 0xfd, 0xfd, 0x01, 0x01, 0x05, 0xfd,
  0x04, 0xfd, 0xff, 0x03, 0x01, 0xff, 0xfd, 0xff, 0x06, 0xf7, 0xfe, 0xfb,
  0xff, 0xfa, 0xf6, 0xfd, 0x04, 0x0c, 0x08, 0xfc, 0xfa, 0x04, 0x00, 0xfb,
  0x01, 0xfc, 0x01, 0x00, 0x01, 0xfe, 0x00, 0x02, 0x04, 0x02, 0x01, 0x01,
  0x01, 0xfd, 0xf9, 0xfc, 0xfa, 0x03, 0xfd, 0xfe, 0x00, 0x02, 0xfd, 0x03,
  0x09, 0x05, 0x06, 0x01, 0xfe, 0x02, 0xfc, 0xfe, 0xf9, 0x09, 0x05, 0x02,
  0xfa, 0x03, 0x0b, 0x00, 0x01, 0x02, 0xfe, 0xfa, 0xf7, 0x07, 0x01, 0xfa,
  0xfc, 0xf9, 0x01, 0x05, 0xf6, 0xfe, 0xfa, 0xff, 0x05, 0xfe, 0xf6, 0x00,
  0x05, 0xfa, 0xff, 0x04, 0xff, 0x06, 0x07, 0x05, 0xf0, 0x02, 0x00, 0x07,
  0xfd, 0x04, 0xfc, 0x06, 0xfe, 0x03, 0xf9, 0x01, 0xfb, 0xff, 0x00, 0xf9,
  0xfd, 0xfb, 0xfb, 0x02, 0x0b, 0xfa, 0xfb, 0x0a, 0x04, 0x04, 0xfd, 0xfb,
  0x01, 0xfe, 0xfc, 0x00, 0x03, 0x06, 0x00, 0x01, 0xff, 0xfc, 0xff, 0x03,
  0xfe, 0x00, 0xfc, 0xfe, 0xff, 0xff, 0x08, 0x03, 0x04, 0x04, 0x01, 0xfe,
  0xfd, 0x04, 0x01, 0x04, 0x07, 0x02, 0xfd, 0x04, 0xfc, 0x06, 0xf9, 0x08,
  0x01, 0x00, 0x02, 0xfd, 0xf9, 0xfd, 0x07, 0xfb, 0x05, 0xf9, 0xfd, 0x04,
  0x02, 0x05, 0x03, 0x09, 0x03, 0x01, 0xf8, 0x02, 0x01, 0x01, 0x02, 0xf7,
  0x08, 0x01, 0x01, 0x03, 0xfb, 0xfc, 0x08, 0x09, 0xfb, 0xfe, 0x04, 0xff,
  0xfd, 0xfe, 0xfb, 0xfa, 0x01, 0xfa, 0xf9, 0xff, 0x05, 0x00, 0xff, 0x06,
  0xfc, 0xf7, 0xfd, 0x04, 0xf9, 0x06, 0xf8, 0x00, 0x02, 0x01, 0xfc, 0x03,
  0xfe, 0x01, 0xfc, 0x00, 0x00, 0xfd, 0xff, 0xf8, 0xfc, 0x08, 0xfb, 0x01,
  0xf2, 0xfd, 0xfe, 0xfb, 0xfc, 0xfd, 0x07, 0x02, 0xfe, 0xff, 0x06, 0xf9,
  0x03, 0x06, 0xfa, 0x03, 0xf9, 0x07, 0xf8, 0x00, 0xfb, 0xfd, 0xff, 0xff,
  0x03, 0xfc, 0xfa, 0xfa, 0x00, 0xfb, 0x01, 0x00, 0xfe, 0xf7, 0x00, 0x02,
  0xf7, 0xfb, 0xff, 0xf9, 0xf5, 0x03, 0x04, 0xfa, 0x08, 0x04, 0x01, 0xfa,
  0x01, 0xf4, 0xf8, 0xf9, 0xf5, 0x02, 0xfe, 0xfb, 0xfd, 0xfd, 0x03, 0xfa,
  0x04, 0xff, 0xf9, 0xfe, 0x06, 0x05, 0xfa, 0x03, 0x03, 0xfc, 0x00, 0xfe,
  0x00, 0xfc, 0xf6, 0x00, 0x08, 0xfb, 0x00, 0x01, 0xfa, 0x0c, 0xfa, 0xfa,
  0x04, 0x04, 0x00, 0x05, 0xf5, 0xfc, 0x02, 0x02, 0xfa, 0x01, 0xff, 0x05,
  0xf8, 0x06, 0xfd, 0x01, 0xf9, 0x02, 0xfe, 0xf2, 0x05, 0xf8, 0xf9, 0xfb,
  0xf9, 0x01, 0xf7, 0xf9, 0xf9, 0x06, 0x07, 0xf9, 0xfd, 0xfd, 0xf9, 0x01,
  0x03, 0x06, 0x03, 0xfe, 0x09, 0x02, 0x02, 0x02, 0x03, 0x02, 0x01, 0x05,
  0x04, 0xfc, 0xf7, 0xfb, 0x04, 0xff, 0x05, 0xff, 0x0b, 0x04, 0xfa, 0x05,
  0xfe, 0x08, 0x01, 0xfe, 0xfe, 0xfc, 0xff, 0xff, 0xfa, 0xfb, 0x05, 0x03,
  0xff, 0x06, 0xff, 0xfe, 0xf8, 0xfd, 0x07, 0xfd, 0xfd, 0xf4, 0x00, 0xfc,
  0x06, 0xfa, 0xfd, 0xf7, 0xfd, 0xf8, 0x00, 0x02, 0x03, 0x04, 0x07, 0x03,
  0xff, 0xfa, 0xff, 0xfe, 0x02, 0xfd, 0xfd, 0x00, 0x0a, 0x03, 0xfa, 0x05,
  0xff, 0x06, 0xfe, 0xfd, 0xff, 0xf9, 0x00, 0xfe, 0x01, 0x00, 0xf3, 0x04,
  0x01, 0x00, 0xfb, 0xfd, 0xf9, 0x00, 0xfb, 0xfa, 0x02, 0xf5, 0x07, 0xf7,
  0x05, 0x07, 0x04, 0x02, 0x03, 0xf7, 0x04, 0x00, 0xfc, 0xf7, 0x00, 0xf9,
  0x04, 0xf7, 0xfe, 0xfa, 0x01, 0x02, 0x01, 0x01, 0x09, 0x01, 0x00, 0x00,
  0x02, 0x00, 0x01, 0xfc, 0x04, 0x00, 0x03, 0x01, 0xff, 0x04, 0xfa, 0xfc,
  0x07, 0xfb, 0xfa, 0xfb, 0x03, 0x07, 0xf9, 0xfb, 0xfd, 0x03, 0x01, 0x00,
  0x03, 0x04, 0xfd, 0x01, 0x01, 0xf9, 0xfe, 0x00, 0x09, 0x00, 0xf8, 0xfc,
  0xfc, 0x04, 0x00, 0x04, 0x01, 0xff, 0x05, 0xfd, 0xfb, 0x01, 0x00, 0x03,
  0xfe, 0x01, 0xfd, 0xfc, 0x03, 0xfd, 0xfa, 0xfc, 0xfd, 0xf8, 0xfc, 0xfe,
  0xff, 0x09, 0x03, 0x04, 0x01, 0x05, 0xfa, 0xfc, 0xfa, 0x05, 0xfd, 0xfe,
  0xff, 0x02, 0x07, 0x01, 0xfe, 0x07, 0xf7, 0x01, 0x02, 0x02, 0x07, 0xfb,
  0x01, 0xff, 0x03, 0x03, 0xfe, 0x00, 0xfb, 0xf9, 0x03, 0x00, 0x03, 0x01,
  0xfb, 0xf8, 0x04, 0x04, 0xfb, 0x01, 0xf7, 0x03, 0xfc, 0xf9, 0x08, 0x01,
  0x04, 0x06, 0x02, 0xf9, 0x00, 0x04, 0xfa, 0xfd, 0xfb, 0xfa, 0xfe, 0xff,
  0x02, 0xf7, 0x01, 0xf9, 0x07, 0x08, 0xfd, 0xfe, 0x05, 0x05, 0x01, 0x01,
  0x04, 0x04, 0x01, 0x00, 0x00, 0x06, 0x08, 0x02, 0xff, 0xff, 0xff, 0x00,
  0xfd, 0xf8, 0x03, 0x01, 0xfc, 0xfc, 0xfc, 0xff, 0x00, 0xf9, 0x02, 0x04,
  0x04, 0x08, 0x01, 0xfa, 0xfb, 0x09, 0x01, 0x01, 0x04, 0xfb, 0x08, 0x06,
  0x06, 0xf8, 0x02, 0x03, 0x02, 0x02, 0xff, 0x04, 0xfb, 0x04, 0x01, 0xff,
  0x05, 0xfc, 0xff, 0x04, 0xf9, 0xfb, 0x01, 0x00, 0x05, 0xf4, 0xf4, 0x00,
  0xff, 0xfb, 0xfb, 0xf9, 0x07, 0xfa, 0xfa, 0xfc, 0x01, 0xfb, 0x06, 0xfb,
  0xfc, 0xfa, 0xfb, 0x05, 0xff, 0x01, 0x05, 0xfc, 0x00, 0xfc, 0xfd, 0x00,
  0xfa, 0xfc, 0xff, 0x00, 0x09, 0xfd, 0xff, 0xfb, 0xfe, 0xfd, 0xf7, 0x04,
  0xff, 0x00, 0x04, 0x01, 0x02, 0x03, 0x07, 0x06, 0xff, 0x07, 0x02, 0x03,
  0x05, 0x00, 0x04, 0x06, 0xfe, 0x04, 0x05, 0xff, 0x07, 0x03, 0x10, 0xfe,
  0xfe, 0xfc, 0x02, 0xfd, 0xff, 0x0d, 0xff, 0x04, 0xf8, 0xf7, 0xfb, 0x01,
  0x03, 0x04, 0xfb, 0x06, 0x00, 0xf5, 0xf9, 0x02, 0x03, 0x0b, 0xfe, 0xf7,
  0x03, 0x00, 0x01, 0x07, 0x00, 0xfe, 0x02, 0x08, 0x00, 0xfd, 0x05, 0x05,
  0x02, 0x03, 0xfe, 0xfd, 0xfb, 0x01, 0x03, 0x02, 0xfa, 0x02, 0xf9, 0x02,
  0x01, 0x07, 0x05, 0xfd, 0x01, 0x00, 0x01, 0xfb, 0xf8, 0x03, 0xfe, 0x03,
  0xff, 0x01, 0x05, 0xfd, 0xfe, 0xfb, 0x0b, 0xf4, 0x03, 0xf2, 0xf6, 0x03,
  0x04, 0xfb, 0xf4, 0xf4, 0xfc, 0x06, 0x0a, 0x02, 0x05, 0x00, 0x05, 0xfb,
  0xfe, 0x01, 0x02, 0x03, 0xfe, 0x02, 0x01, 0xfe, 0x03, 0x08, 0x06, 0xf8,
  0xff, 0xff, 0x05, 0x03, 0x01, 0x0a, 0xfe, 0x02, 0xfc, 0x01, 0xfe, 0x04,
  0x05, 0x01, 0xf8, 0xfd, 0x03, 0x05, 0x00, 0x04, 0x05, 0x07, 0x05, 0xfd,
  0x02, 0x01, 0xff, 0x06, 0xfb, 0x0a, 0x01, 0x06, 0xfb, 0x08, 0x09, 0x05,
  0xfa, 0xfc, 0x05, 0xfe, 0x06, 0x06, 0x0b, 0xfb, 0xfe, 0x0e, 0x01, 0x00,
  0x06, 0x01, 0x08, 0x04, 0x00, 0x03, 0xfc, 0x02, 0xf6, 0xf7, 0x02, 0x03,
  0xfc, 0xfb, 0x01, 0xfd, 0x07, 0xfe, 0x03, 0xff, 0x02, 0xff, 0x04, 0xff,
  0xfb, 0xfd, 0x0c, 0x04, 0x03, 0x03, 0xff, 0x02, 0x06, 0x00, 0x06, 0x07,
  0xfd, 0xff, 0x01, 0xfc, 0x06, 0x00, 0x07, 0x00, 0xfb, 0x03, 0x00, 0x00,
  0x13, 0x1c, 0x12, 0xdb, 0xc4, 0xe6, 0x12, 0xce, 0xe5, 0x09, 0x27, 0xf3,
  0xf0, 0x05, 0x1a, 0xd5, 0xe9, 0x13, 0x0b, 0xf6, 0xd3, 0x06, 0x12, 0xe1,
  0xe8, 0xf4, 0x19, 0xe9, 0x01, 0xff, 0x16, 0xe3, 0xf9, 0x10, 0x00, 0x06,
  0xd5, 0xf4, 0x17, 0xdf, 0xdf, 0xe9, 0x14, 0x0c, 0xea, 0x08, 0x13, 0xf4,
  0xf0, 0x13, 0x20, 0xd7, 0xce, 0xf3, 0x0a, 0xd9, 0xdc, 0x0c, 0x12, 0xf3,
  0xed, 0x0e, 0x0a, 0xeb, 0x0a, 0x14, 0x1a, 0xe7, 0xcf, 0x01, 0x0b, 0xe9,
  0xf4, 0x10, 0x0b, 0xfa, 0xfe, 0xfd, 0x11, 0xd6, 0xf6, 0x0d, 0x09, 0xe2,
  0xd4, 0xfa, 0x10, 0xd8, 0xf3, 0xd1, 0x0d, 0xed, 0x03, 0xff, 0x12, 0xdd,
  0xed, 0x17, 0x13, 0xcc, 0xcc, 0x0b, 0x0f, 0xd1, 0xe3, 0xf0, 0x1d, 0xf4,
  0xfa, 0x00, 0x12, 0xf0, 0x08, 0x0f, 0x15, 0xe9, 0xdf, 0xfe, 0x11, 0xe3,
  0xe7, 0xd3, 0x17, 0xfc, 0xf2, 0x02, 0x19, 0xd9, 0x11, 0x16, 0x12, 0xf7,
  0xd7, 0x02, 0x0d, 0xbc, 0xcb, 0xe2, 0x1d, 0xf5, 0x05, 0xf3, 0x1a, 0xda,
  0x09, 0x14, 0x1f, 0xe7, 0xc4, 0x09, 0x0a, 0xcc, 0xbc, 0xde, 0x14, 0xf6,
  0xf8, 0xff, 0x17, 0xe5, 0x07, 0x14, 0x0a, 0xe2, 0xdc, 0x13, 0x12, 0xd4,
  0xad, 0x06, 0x0c, 0xd8, 0x04, 0x05, 0x0b, 0xed, 0xed, 0x19, 0x09, 0xe0,
  0xd7, 0x01, 0x17, 0xda, 0xc9, 0xed, 0x17, 0xfb, 0xfd, 0x04, 0x0e, 0xdd,
  0xf7, 0x12, 0x1b, 0xe6, 0xe7, 0x04, 0x11, 0xea, 0xc1, 0xee, 0x0c, 0xf2,
  0x00, 0x0a, 0x15, 0x00, 0x1a, 0x13, 0x18, 0x0d, 0xdc, 0xf3, 0x0b, 0xe8,
  0xe0, 0xd9, 0x13, 0xe3, 0x02, 0x03, 0x0e, 0xf0, 0x13, 0x16, 0x1e, 0xe6,
  0xc2, 0xfd, 0x0a, 0xe1, 0xd8, 0xcc, 0x09, 0x07, 0xed, 0x16, 0x09, 0xef,
  0xf6, 0x1c, 0x1e, 0xe8, 0xe0, 0x0c, 0x0b, 0xea, 0xd7, 0xfa, 0x08, 0xf5,
  0xe3, 0xfd, 0x0f, 0xff, 0xfe, 0x17, 0x28, 0xe7, 0xdd, 0xfb, 0x13, 0xeb,
  0xf2, 0xe7, 0x0a, 0xfe, 0xe2, 0xf6, 0x15, 0xf7, 0xf9, 0x15, 0x14, 0xe6,
  0xc9, 0xef, 0x09, 0xec, 0xde, 0xfa, 0x0e, 0x0f, 0xf7, 0xf7, 0x12, 0xf7,
  0xf3, 0x0c, 0x13, 0xd0, 0xd3, 0xf5, 0x0b, 0xf5, 0xf1, 0x04, 0x0b, 0xfd,
  0xec, 0xf7, 0x0c, 0x19, 0x08, 0xfc, 0xef, 0xdb, 0xb9, 0xfd, 0x10, 0xd7,
  0xf0, 0x10, 0x04, 0xea, 0xdc, 0xaf, 0x00, 0xfe, 0x07, 0x09, 0xff, 0x03,
  0xf7, 0x00, 0x04, 0x03, 0x06, 0xfe, 0x07, 0x00, 0x07, 0xf9, 0xf8, 0x00,
  0xfa, 0x07, 0x03, 0xfe, 0xf8, 0x00, 0x03, 0x03, 0xfb, 0x03, 0xfd, 0xfa,
  0x00, 0x00, 0xfd, 0xff, 0x01, 0x06, 0x00, 0x08, 0xfd, 0xf7, 0x05, 0xfb,
  0x03, 0x05, 0xf9, 0xf7, 0x08, 0x00, 0xfc, 0xfd, 0x0a, 0x02, 0x02, 0x06,
  0x06, 0x06, 0xfe, 0xfe, 0xff, 0xff, 0xfa, 0x00, 0xfd, 0x07, 0x06, 0xfe,
  0x0a, 0xfa, 0x07, 0xfe, 0xfb, 0x04, 0x04, 0xfd, 0x03, 0xfc, 0x02, 0x06,
  0x00, 0x00, 0x05, 0xff, 0xfe, 0xfc, 0x0a, 0xfe, 0x00, 0xfa, 0x00, 0x06,
  0xf9, 0x05, 0x04, 0x07, 0xfe, 0x04, 0x00, 0x02, 0x09, 0x00, 0x04, 0x04,
  0x01, 0xfe, 0x07, 0x01, 0xfe, 0x04, 0x0c, 0x00, 0x05, 0xf7, 0x04, 0x07,
  0x0e, 0xfe, 0xfd, 0x03, 0x01, 0xff, 0x07, 0x04, 0xfa, 0x04, 0xf8, 0xf8,
  0x05, 0x02, 0xff, 0x00, 0xff, 0xf7, 0x04, 0x09, 0x01, 0x00, 0xff, 0x08,
  0xfc, 0x03, 0xfa, 0xfc, 0xfb, 0xff, 0xfd, 0xfb, 0x09, 0xfc, 0xf5, 0x07,
